{
  "version": "1.0",
  "truncation": null,
  "padding": null,
  "added_tokens": [
    {
      "id": 0,
      "content": "<s>",
      "single_word": false,
      "lstrip": false,
      "rstrip": false,
      "normalized": false,
      "special": true
    },
    {
      "id": 1,
      "content": "<pad>",
      "single_word": false,
      "lstrip": false,
      "rstrip": false,
      "normalized": false,
      "special": true
    },
    {
      "id": 2,
      "content": "</s>",
      "single_word": false,
      "lstrip": false,
      "rstrip": false,
      "normalized": false,
      "special": true
    },
    {
      "id": 3,
      "content": "<unk>",
      "single_word": false,
      "lstrip": false,
      "rstrip": false,
      "normalized": false,
      "special": true
    },
    {
      "id": 4,
      "content": "<mask>",
      "single_word": false,
      "lstrip": false,
      "rstrip": false,
      "normalized": false,
      "special": true
    },
    {
      "id": 5,
      "content": "Jehovah",
      "single_word": false,
      "lstrip": false,
      "rstrip": false,
      "normalized": false,
      "special": true
    }
  ],
  "normalizer": null,
  "pre_tokenizer": {
    "type": "ByteLevel",
    "add_prefix_space": false,
    "trim_offsets": true,
    "use_regex": true
  },
  "post_processor": {
    "type": "ByteLevel",
    "add_prefix_space": true,
    "trim_offsets": false,
    "use_regex": true
  },
  "decoder": {
    "type": "ByteLevel",
    "add_prefix_space": true,
    "trim_offsets": true,
    "use_regex": true
  },
  "model": {
    "type": "BPE",
    "dropout": null,
    "unk_token": null,
    "continuing_subword_prefix": null,
    "end_of_word_suffix": null,
    "fuse_unk": false,
    "byte_fallback": false,
    "ignore_merges": false,
    "vocab": {
      "<s>": 0,
      "<pad>": 1,
      "</s>": 2,
      "<unk>": 3,
      "<mask>": 4,
      "Jehovah": 5,
      "!": 6,
      "\"": 7,
      "#": 8,
      "$": 9,
      "%": 10,
      "&": 11,
      "'": 12,
      "(": 13,
      ")": 14,
      "*": 15,
      "+": 16,
      ",": 17,
      "-": 18,
      ".": 19,
      "/": 20,
      "0": 21,
      "1": 22,
      "2": 23,
      "3": 24,
      "4": 25,
      "5": 26,
      "6": 27,
      "7": 28,
      "8": 29,
      "9": 30,
      ":": 31,
      ";": 32,
      "<": 33,
      "=": 34,
      ">": 35,
      "?": 36,
      "@": 37,
      "A": 38,
      "B": 39,
      "C": 40,
      "D": 41,
      "E": 42,
      "F": 43,
      "G": 44,
      "H": 45,
      "I": 46,
      "J": 47,
      "K": 48,
      "L": 49,
      "M": 50,
      "N": 51,
      "O": 52,
      "P": 53,
      "Q": 54,
      "R": 55,
      "S": 56,
      "T": 57,
      "U": 58,
      "V": 59,
      "W": 60,
      "X": 61,
      "Y": 62,
      "Z": 63,
      "[": 64,
      "\\": 65,
      "]": 66,
      "^": 67,
      "_": 68,
      "`": 69,
      "a": 70,
      "b": 71,
      "c": 72,
      "d": 73,
      "e": 74,
      "f": 75,
      "g": 76,
      "h": 77,
      "i": 78,
      "j": 79,
      "k": 80,
      "l": 81,
      "m": 82,
      "n": 83,
      "o": 84,
      "p": 85,
      "q": 86,
      "r": 87,
      "s": 88,
      "t": 89,
      "u": 90,
      "v": 91,
      "w": 92,
      "x": 93,
      "y": 94,
      "z": 95,
      "{": 96,
      "|": 97,
      "}": 98,
      "~": 99,
      "¡": 100,
      "¢": 101,
      "£": 102,
      "¤": 103,
      "¥": 104,
      "¦": 105,
      "§": 106,
      "¨": 107,
      "©": 108,
      "ª": 109,
      "«": 110,
      "¬": 111,
      "®": 112,
      "¯": 113,
      "°": 114,
      "±": 115,
      "²": 116,
      "³": 117,
      "´": 118,
      "µ": 119,
      "¶": 120,
      "·": 121,
      "¸": 122,
      "¹": 123,
      "º": 124,
      "»": 125,
      "¼": 126,
      "½": 127,
      "¾": 128,
      "¿": 129,
      "À": 130,
      "Á": 131,
      "Â": 132,
      "Ã": 133,
      "Ä": 134,
      "Å": 135,
      "Æ": 136,
      "Ç": 137,
      "È": 138,
      "É": 139,
      "Ê": 140,
      "Ë": 141,
      "Ì": 142,
      "Í": 143,
      "Î": 144,
      "Ï": 145,
      "Ð": 146,
      "Ñ": 147,
      "Ò": 148,
      "Ó": 149,
      "Ô": 150,
      "Õ": 151,
      "Ö": 152,
      "×": 153,
      "Ø": 154,
      "Ù": 155,
      "Ú": 156,
      "Û": 157,
      "Ü": 158,
      "Ý": 159,
      "Þ": 160,
      "ß": 161,
      "à": 162,
      "á": 163,
      "â": 164,
      "ã": 165,
      "ä": 166,
      "å": 167,
      "æ": 168,
      "ç": 169,
      "è": 170,
      "é": 171,
      "ê": 172,
      "ë": 173,
      "ì": 174,
      "í": 175,
      "î": 176,
      "ï": 177,
      "ð": 178,
      "ñ": 179,
      "ò": 180,
      "ó": 181,
      "ô": 182,
      "õ": 183,
      "ö": 184,
      "÷": 185,
      "ø": 186,
      "ù": 187,
      "ú": 188,
      "û": 189,
      "ü": 190,
      "ý": 191,
      "þ": 192,
      "ÿ": 193,
      "Ā": 194,
      "ā": 195,
      "Ă": 196,
      "ă": 197,
      "Ą": 198,
      "ą": 199,
      "Ć": 200,
      "ć": 201,
      "Ĉ": 202,
      "ĉ": 203,
      "Ċ": 204,
      "ċ": 205,
      "Č": 206,
      "č": 207,
      "Ď": 208,
      "ď": 209,
      "Đ": 210,
      "đ": 211,
      "Ē": 212,
      "ē": 213,
      "Ĕ": 214,
      "ĕ": 215,
      "Ė": 216,
      "ė": 217,
      "Ę": 218,
      "ę": 219,
      "Ě": 220,
      "ě": 221,
      "Ĝ": 222,
      "ĝ": 223,
      "Ğ": 224,
      "ğ": 225,
      "Ġ": 226,
      "ġ": 227,
      "Ģ": 228,
      "ģ": 229,
      "Ĥ": 230,
      "ĥ": 231,
      "Ħ": 232,
      "ħ": 233,
      "Ĩ": 234,
      "ĩ": 235,
      "Ī": 236,
      "ī": 237,
      "Ĭ": 238,
      "ĭ": 239,
      "Į": 240,
      "į": 241,
      "İ": 242,
      "ı": 243,
      "Ĳ": 244,
      "ĳ": 245,
      "Ĵ": 246,
      "ĵ": 247,
      "Ķ": 248,
      "ķ": 249,
      "ĸ": 250,
      "Ĺ": 251,
      "ĺ": 252,
      "Ļ": 253,
      "ļ": 254,
      "Ľ": 255,
      "ľ": 256,
      "Ŀ": 257,
      "ŀ": 258,
      "Ł": 259,
      "ł": 260,
      "Ń": 261,
      "Ġt": 262,
      "he": 263,
      "Ġa": 264,
      "Ġthe": 265,
      "Ġw": 266,
      "Ġo": 267,
      "in": 268,
      "nd": 269,
      "Ġs": 270,
      "ou": 271,
      "re": 272,
      "Ġh": 273,
      "Ġof": 274,
      "Ġb": 275,
      "Ġand": 276,
      "is": 277,
      "Ġf": 278,
      "er": 279,
      "Ġto": 280,
      "Ġm": 281,
      "at": 282,
      "ll": 283,
      "it": 284,
      "es": 285,
      "ing": 286,
      "on": 287,
      "Ġy": 288,
      "or": 289,
      "âĢ": 290,
      "Ġyou": 291,
      "Ġc": 292,
      "Ġd": 293,
      "ed": 294,
      "en": 295,
      "Ê¹": 296,
      "Ġp": 297,
      "Ġth": 298,
      "Ġin": 299,
      "ar": 300,
      "ho": 301,
      "Ġn": 302,
      "an": 303,
      "Ġl": 304,
      "Ġhe": 305,
      "om": 306,
      "ĠI": 307,
      "ĠJ": 308,
      "Ġwi": 309,
      "Ġbe": 310,
      "Â·": 311,
      "as": 312,
      ".+": 313,
      "Ġg": 314,
      "ah": 315,
      "Ġwill": 316,
      "ĠA": 317,
      "se": 318,
      "ot": 319,
      "ut": 320,
      "ve": 321,
      "ay": 322,
      "le": 323,
      "id": 324,
      "ĠâĢ": 325,
      "ĠT": 326,
      "im": 327,
      "Ġha": 328,
      "Ġon": 329,
      "ow": 330,
      ",+": 331,
      "ĠJe": 332,
      "Ġis": 333,
      "Ġe": 334,
      "Ġfor": 335,
      "Ġthat": 336,
      "ith": 337,
      "ĠâĢľ": 338,
      "st": 339,
      "am": 340,
      "Ġre": 341,
      "Ġhis": 342,
      "od": 343,
      "Ġu": 344,
      "vah": 345,
      "hovah": 346,
      "Ġyour": 347,
      "ir": 348,
      "ĠThe": 349,
      "ĠJehovah": 350,
      "gh": 351,
      "Ġnot": 352,
      "ld": 353,
      "Ġwith": 354,
      "ĠS": 355,
      "ac": 356,
      "Ġit": 357,
      "her": 358,
      "ent": 359,
      "ri": 360,
      "ke": 361,
      "âĢĿ": 362,
      "ver": 363,
      "Ġhim": 364,
      "ra": 365,
      "ion": 366,
      "Ġthem": 367,
      "Ġwe": 368,
      "Ġthey": 369,
      "rom": 370,
      "et": 371,
      "ĠG": 372,
      "Ġwho": 373,
      "al": 374,
      "ur": 375,
      "el": 376,
      "Ġme": 377,
      "ĠAnd": 378,
      "ad": 379,
      "Ġas": 380,
      "ght": 381,
      "Ġfrom": 382,
      "Ġsa": 383,
      "Ġall": 384,
      "ĠH": 385,
      "Ġk": 386,
      "ĠB": 387,
      "Ġwas": 388,
      "Ġst": 389,
      "th": 390,
      "Ġmy": 391,
      "ce": 392,
      "Ġan": 393,
      "and": 394,
      "Ġhave": 395,
      "ly": 396,
      "ro": 397,
      ".âĢĿ": 398,
      "ain": 399,
      "Ġare": 400,
      "au": 401,
      "âĢĻ": 402,
      "ĠGod": 403,
      "il": 404,
      "Ġwh": 405,
      "ore": 406,
      "Ġse": 407,
      "Ġson": 408,
      "Ġsaid": 409,
      "Ġtheir": 410,
      "Ġli": 411,
      "čĊ": 412,
      "Ġcom": 413,
      "ess": 414,
      "Ġone": 415,
      "ord": 416,
      "ĠM": 417,
      "Ġde": 418,
      "ame": 419,
      "Ġbec": 420,
      "op": 421,
      "Ġup": 422,
      "est": 423,
      "Ġout": 424,
      "ĠIs": 425,
      "Ġdo": 426,
      "us": 427,
      "Ġwere": 428,
      "Ġgo": 429,
      "ic": 430,
      "Ġthis": 431,
      "ven": 432,
      "ĠW": 433,
      "Ġman": 434,
      "ĠSo": 435,
      "ter": 436,
      "hen": 437,
      "ong": 438,
      "Ġpe": 439,
      "ould": 440,
      "Ġsp": 441,
      "ĠF": 442,
      "ĠC": 443,
      "Ġsay": 444,
      "ant": 445,
      "Ġby": 446,
      "ĠL": 447,
      "ru": 448,
      "Ġbr": 449,
      "Ġking": 450,
      "ĠE": 451,
      "Ġal": 452,
      "ĠHe": 453,
      "Ġsh": 454,
      "rael": 455,
      "red": 456,
      "ĠIsrael": 457,
      "ers": 458,
      "Ġhas": 459,
      "ation": 460,
      "Ġhad": 461,
      "ab": 462,
      "Ġpeop": 463,
      "ust": 464,
      "aÊ¹": 465,
      "Ġam": 466,
      "ĠBut": 467,
      "all": 468,
      "Ġat": 469,
      "ake": 470,
      "Ġday": 471,
      "one": 472,
      "iÊ¹": 473,
      "ĠO": 474,
      "ok": 475,
      "pt": 476,
      "ct": 477,
      "Ġhou": 478,
      "ard": 479,
      "Ġwhat": 480,
      "Ġpeople": 481,
      "ĠD": 482,
      "You": 483,
      "nt": 484,
      "res": 485,
      "Ġag": 486,
      "own": 487,
      "ak": 488,
      "ose": 489,
      "ear": 490,
      "Ġoff": 491,
      "ause": 492,
      "ch": 493,
      "ather": 494,
      "Ġj": 495,
      "if": 496,
      "Ġso": 497,
      "Ġlo": 498,
      "ĠN": 499,
      "Ġbut": 500,
      "Ġagain": 501,
      "ome": 502,
      "Ġland": 503,
      "Ġhouse": 504,
      "ĠP": 505,
      "Ġcon": 506,
      "rou": 507,
      "ings": 508,
      "ive": 509,
      "ace": 510,
      "Ġint": 511,
      "ĠFor": 512,
      "ist": 513,
      "os": 514,
      "*+": 515,
      "Ġpl": 516,
      "av": 517,
      "ĠâĢĺ": 518,
      "Ġor": 519,
      "Ġthere": 520,
      "ul": 521,
      "ie": 522,
      "ud": 523,
      "ĠThen": 524,
      "Ġher": 525,
      "ness": 526,
      "pp": 527,
      "ge": 528,
      "sel": 529,
      "other": 530,
      "fore": 531,
      "art": 532,
      "ies": 533,
      "ous": 534,
      "Ġab": 535,
      ".âĢĿ+": 536,
      "Ġinto": 537,
      "ity": 538,
      "ep": 539,
      "Ġhand": 540,
      "Ġus": 541,
      "Ġdown": 542,
      "Ġover": 543,
      "ites": 544,
      ";+": 545,
      "ĠYou": 546,
      "Ġno": 547,
      "Ġthose": 548,
      "out": 549,
      "Ġbecause": 550,
      "Ġsons": 551,
      "Ġv": 552,
      "Ġkn": 553,
      "Ġagainst": 554,
      "ight": 555,
      "ĠThey": 556,
      "ath": 557,
      "Ġch": 558,
      "urn": 559,
      "ill": 560,
      "Ġ1": 561,
      "ig": 562,
      "ment": 563,
      "Ġmen": 564,
      "ck": 565,
      "Ġpro": 566,
      "very": 567,
      "Ġshould": 568,
      "ast": 569,
      "Ġri": 570,
      "Ġdid": 571,
      "Ġser": 572,
      "ell": 573,
      "Ġshe": 574,
      "fe": 575,
      "so": 576,
      "Ġex": 577,
      "Ġlike": 578,
      "em": 579,
      "Ġwhen": 580,
      "reat": 581,
      "Ġits": 582,
      "Ê¹a": 583,
      "Ġbefore": 584,
      "ves": 585,
      "la": 586,
      "um": 587,
      "way": 588,
      "ade": 589,
      "Ġcome": 590,
      "Ġmay": 591,
      "Ġcame": 592,
      "ind": 593,
      "Ġar": 594,
      "ine": 595,
      "Ġmade": 596,
      "Ġwor": 597,
      "ph": 598,
      "ice": 599,
      "Ġne": 600,
      "eÊ¹": 601,
      "ĠK": 602,
      "ved": 603,
      "Ġthings": 604,
      "Ġear": 605,
      "Ġknow": 606,
      "ide": 607,
      "ach": 608,
      "TE": 609,
      "AP": 610,
      "BO": 611,
      "HAP": 612,
      "OK": 613,
      "ĠCHAP": 614,
      "TER": 615,
      "BOOK": 616,
      "ĠCHAPTER": 617,
      "fter": 618,
      "Ġour": 619,
      "Ġwent": 620,
      "Ġbl": 621,
      "ign": 622,
      ",*": 623,
      "Ġsu": 624,
      "ate": 625,
      "Ġdis": 626,
      "sh": 627,
      "ther": 628,
      "hed": 629,
      "ale": 630,
      "ood": 631,
      "our": 632,
      "oÊ¹": 633,
      "Ġword": 634,
      "Ġfather": 635,
      "avid": 636,
      "Ġun": 637,
      "Ġpr": 638,
      "ĠDavid": 639,
      "Ġoffer": 640,
      "les": 641,
      "Ġke": 642,
      "Ġany": 643,
      "Ġright": 644,
      "Ġle": 645,
      "wn": 646,
      "Ġput": 647,
      "ound": 648,
      "Ġthen": 649,
      "ise": 650,
      "Ġho": 651,
      "Ġaway": 652,
      "ire": 653,
      "Ġpri": 654,
      "Ġcomm": 655,
      "Ġalso": 656,
      "ount": 657,
      "Ġac": 658,
      "ĠWhen": 659,
      "self": 660,
      ".âĢĻ": 661,
      "ave": 662,
      "Ġr": 663,
      "ĠTh": 664,
      "Ġco": 665,
      "Ġserv": 666,
      "Ġmake": 667,
      "ĠR": 668,
      "Ġtim": 669,
      "Ġfore": 670,
      "Ġplace": 671,
      "orn": 672,
      "ied": 673,
      "ĠJes": 674,
      "ry": 675,
      "ĠJer": 676,
      "qu": 677,
      "iÊ¹ah": 678,
      "ng": 679,
      "Ġthese": 680,
      "Ġmust": 681,
      "ations": 682,
      "Ġpriest": 683,
      "00": 684,
      "Ġevery": 685,
      "Ġbeen": 686,
      "Ġif": 687,
      "Ġgreat": 688,
      "Ġsaying": 689,
      "Ġabout": 690,
      "Ġbrother": 691,
      "ered": 692,
      "Ġsin": 693,
      "Ġsee": 694,
      "Ġwould": 695,
      "ĠJesus": 696,
      "ought": 697,
      "Ġbu": 698,
      "Ġbecome": 699,
      "ever": 700,
      "Ġearth": 701,
      "ted": 702,
      "Ġ2": 703,
      "here": 704,
      "?âĢĿ": 705,
      "ants": 706,
      "Ê¹i": 707,
      "Ġyear": 708,
      "Ġrep": 709,
      "ol": 710,
      "Ġheart": 711,
      "Ġwat": 712,
      "nder": 713,
      "Ġsw": 714,
      "ĠJud": 715,
      "Ġrem": 716,
      "ich": 717,
      "ip": 718,
      "ving": 719,
      "ĠZ": 720,
      "oses": 721,
      "Ġamong": 722,
      "ance": 723,
      "Ġjust": 724,
      "ack": 725,
      "ans": 726,
      "Ġway": 727,
      "Ġspe": 728,
      "Ġro": 729,
      "Ġown": 730,
      "Ġgive": 731,
      "aught": 732,
      "ĠMoses": 733,
      "Ġcity": 734,
      "ish": 735,
      "Ê¹e": 736,
      "rough": 737,
      "Ġlet": 738,
      "ĠJudah": 739,
      "round": 740,
      "Ġname": 741,
      "aven": 742,
      "ild": 743,
      "ree": 744,
      "usale": 745,
      "usalem": 746,
      "oth": 747,
      "Ġcall": 748,
      "ĠJerusalem": 749,
      "Ġwhich": 750,
      "Ġdes": 751,
      "Ġgood": 752,
      "Ġtake": 753,
      "phe": 754,
      "Ġdec": 755,
      "Ġthrough": 756,
      "Ġres": 757,
      "Ġacc": 758,
      "ile": 759,
      "Ġgi": 760,
      "ĠIn": 761,
      "Ġarm": 762,
      "ful": 763,
      "Ġen": 764,
      "Ġtru": 765,
      "Ġfl": 766,
      "ĠEg": 767,
      "mon": 768,
      "Ġbring": 769,
      "Ġother": 770,
      "Ġdays": 771,
      ".*": 772,
      "ĠPh": 773,
      "ts": 774,
      "ure": 775,
      "Ġtime": 776,
      "ĠKing": 777,
      "Ġapp": 778,
      "Ġbecame": 779,
      "eous": 780,
      "ypt": 781,
      "ĠEgypt": 782,
      "Ġcommand": 783,
      "Ġtw": 784,
      "Ġbeg": 785,
      "ue": 786,
      "Ġoffering": 787,
      "Ġcont": 788,
      "rib": 789,
      "Ġholy": 790,
      "are": 791,
      "Ġcl": 792,
      "Ġeat": 793,
      "read": 794,
      "Ġheaven": 795,
      "Ġey": 796,
      "Ġent": 797,
      "Ġafter": 798,
      "ite": 799,
      "dom": 800,
      "Ġsays": 801,
      "ase": 802,
      "Ġbrought": 803,
      "ĠEÊ¹": 804,
      ".*+": 805,
      "Ġwork": 806,
      "ne": 807,
      "Ġnow": 808,
      "Ġwom": 809,
      "?+": 810,
      "ĠLord": 811,
      "ĠAs": 812,
      "Ġfo": 813,
      "Ġtook": 814,
      "ub": 815,
      "Ġfa": 816,
      "Ġspeak": 817,
      "Ġfir": 818,
      "Ġrighteous": 819,
      "Ġcan": 820,
      "ag": 821,
      "ft": 822,
      "hing": 823,
      "Ê¹t": 824,
      "ĠCh": 825,
      "Ġsent": 826,
      "row": 827,
      "Ġtwo": 828,
      "ort": 829,
      "aul": 830,
      "ĠNow": 831,
      "Ġthan": 832,
      "ments": 833,
      "Ġwr": 834,
      "led": 835,
      "ated": 836,
      "ĠIt": 837,
      "get": 838,
      "Ġkeep": 839,
      "irit": 840,
      "Ġsc": 841,
      "Ġspirit": 842,
      "Ġturn": 843,
      "Ġunder": 844,
      "Ġeyes": 845,
      "igh": 846,
      "Ġset": 847,
      "Ġprophe": 848,
      "ward": 849,
      "Ġgave": 850,
      "Ġang": 851,
      "amp": 852,
      "ĠShe": 853,
      "Ġsac": 854,
      "Ġsome": 855,
      "ory": 856,
      "Ġnations": 857,
      "rif": 858,
      "Ġreg": 859,
      "Ġjud": 860,
      "ook": 861,
      "Ġlook": 862,
      "Ġsaw": 863,
      "Ġback": 864,
      "Ġwhom": 865,
      "ern": 866,
      "itt": 867,
      "ntil": 868,
      "The": 869,
      "ass": 870,
      "Ġgl": 871,
      "Ê¹b": 872,
      "selves": 873,
      "Ġob": 874,
      "Ġheard": 875,
      "ĠAt": 876,
      "Ġra": 877,
      "ect": 878,
      "Ġbel": 879,
      "Ġlong": 880,
      "Ġwhere": 881,
      "ress": 882,
      "Ġbegan": 883,
      "Ġfe": 884,
      "ink": 885,
      "Ġhead": 886,
      "ors": 887,
      "Ġeach": 888,
      "ull": 889,
      "Ġlove": 890,
      "Ġdoes": 891,
      "Ġfirst": 892,
      "Ġper": 893,
      "Ġru": 894,
      "Ġlife": 895,
      "Ġtent": 896,
      "Ġdaught": 897,
      "able": 898,
      "Ġbrothers": 899,
      "ĠThere": 900,
      "Ġdecla": 901,
      "Ġpre": 902,
      "Ġfire": 903,
      "Ġgra": 904,
      "Ġret": 905,
      "aw": 906,
      "ities": 907,
      "Ġfaith": 908,
      "Ġcar": 909,
      "ary": 910,
      "Th": 911,
      "rist": 912,
      "Ġmany": 913,
      "ob": 914,
      "ple": 915,
      "iv": 916,
      "âĢĺ": 917,
      "Ġad": 918,
      "Ġuntil": 919,
      "ĠChrist": 920,
      "ĠBe": 921,
      "oin": 922,
      "ces": 923,
      "Ġmount": 924,
      "ĠâĢľâĢĺ": 925,
      "Ġple": 926,
      "Ġstand": 927,
      "Ġyoung": 928,
      "ĠAb": 929,
      "alk": 930,
      "end": 931,
      "ĠIsraelites": 932,
      "gether": 933,
      "Ġyears": 934,
      "oice": 935,
      "Ġ4": 936,
      "ions": 937,
      "ĠWh": 938,
      "mb": 939,
      "cked": 940,
      "per": 941,
      "Ġdeath": 942,
      "Ġmountain": 943,
      "Ġsho": 944,
      "ĠHow": 945,
      "Ġtogether": 946,
      "Ġtrue": 947,
      "Ġreturn": 948,
      "ĠIf": 949,
      "ws": 950,
      "âĢĿ+": 951,
      "ap": 952,
      "âĢĶ": 953,
      "Ġend": 954,
      "Ġeven": 955,
      "Ġchild": 956,
      "un": 957,
      "Ġmore": 958,
      "Ġhimself": 959,
      "isten": 960,
      "This": 961,
      "Ġkept": 962,
      "Ġgold": 963,
      ",*+": 964,
      "Ġrest": 965,
      "Ġord": 966,
      "ĠThis": 967,
      "less": 968,
      "Ġcities": 969,
      "thing": 970,
      "Ġwar": 971,
      "ĠSh": 972,
      "Ġcalled": 973,
      "Ġwords": 974,
      "Wh": 975,
      "Ġfound": 976,
      "Ġwater": 977,
      "iz": 978,
      "Ġim": 979,
      "ised": 980,
      "Ê¹n": 981,
      "lean": 982,
      "Ġgiven": 983,
      "Ġsacrif": 984,
      "Ġsl": 985,
      "outh": 986,
      "Ġwicked": 987,
      "oh": 988,
      "Ġpres": 989,
      "ield": 990,
      "ĠDo": 991,
      "Ġnor": 992,
      "age": 993,
      "Ġstre": 994,
      "hes": 995,
      "Ġsec": 996,
      "Ġsword": 997,
      "Ġwild": 998,
      "als": 999,
      "ording": 1000,
      "tar": 1001,
      "Ġcontin": 1002,
      "Ġatt": 1003,
      "Ġblood": 1004,
      "Ġheavens": 1005,
      "rink": 1006,
      "ough": 1007,
      "oke": 1008,
      "hab": 1009,
      "Ġdisc": 1010,
      "Ġ3": 1011,
      "Ġaltar": 1012,
      "Ġpriests": 1013,
      "Ġsil": 1014,
      "Ġones": 1015,
      "Ġanother": 1016,
      "Ġwalk": 1017,
      "Ġchie": 1018,
      "Ġdone": 1019,
      "ĠAm": 1020,
      "Ġupon": 1021,
      "Ġtrib": 1022,
      "ĠTo": 1023,
      "Ġfam": 1024,
      "ried": 1025,
      "sw": 1026,
      "Ġgu": 1027,
      "Ġleft": 1028,
      "Ġmight": 1029,
      "lis": 1030,
      "ron": 1031,
      "Ġqu": 1032,
      "Ġwell": 1033,
      "Ġwoman": 1034,
      "ĠAÊ¹": 1035,
      "ock": 1036,
      "ence": 1037,
      "ber": 1038,
      "Ġservant": 1039,
      "Ġrej": 1040,
      "ower": 1041,
      "oy": 1042,
      "att": 1043,
      "Ġansw": 1044,
      "Ġaccording": 1045,
      "Ġalong": 1046,
      "ĠLe": 1047,
      "ost": 1048,
      "rah": 1049,
      "Ġhear": 1050,
      "Ġact": 1051,
      "Ġremain": 1052,
      "Ġtak": 1053,
      "ĠSaul": 1054,
      "az": 1055,
      "Ġtre": 1056,
      "Ġhow": 1057,
      "Ġservants": 1058,
      "ally": 1059,
      "Ġbur": 1060,
      "Ġwife": 1061,
      "pen": 1062,
      "ilt": 1063,
      "its": 1064,
      "Ġbet": 1065,
      "well": 1066,
      "Ġask": 1067,
      "Ġhands": 1068,
      "de": 1069,
      "ib": 1070,
      "Ê¹o": 1071,
      "ĠAfter": 1072,
      "Ġtr": 1073,
      "ren": 1074,
      "Ġdrink": 1075,
      "Ġdwell": 1076,
      "ond": 1077,
      "ures": 1078,
      "ĠWho": 1079,
      "ĠLet": 1080,
      "ĠAll": 1081,
      "oss": 1082,
      "eth": 1083,
      "ued": 1084,
      "Ġtell": 1085,
      "err": 1086,
      "Ġdest": 1087,
      "ely": 1088,
      "Ġgod": 1089,
      "Ġlisten": 1090,
      "Ġaround": 1091,
      "apt": 1092,
      "Ġjudg": 1093,
      "side": 1094,
      "acob": 1095,
      "Ġdist": 1096,
      "father": 1097,
      "Ġstr": 1098,
      "ction": 1099,
      "ĠBaÊ¹": 1100,
      "Ġorder": 1101,
      "Ġdep": 1102,
      "ĠPhar": 1103,
      "ai": 1104,
      "ĠJacob": 1105,
      "ick": 1106,
      "Ġforefather": 1107,
      "ines": 1108,
      "llow": 1109,
      "lon": 1110,
      "Ġgar": 1111,
      "Ġdeclares": 1112,
      "Ġaf": 1113,
      "illed": 1114,
      "ey": 1115,
      "Ê¹m": 1116,
      "Ġunc": 1117,
      "Ġhigh": 1118,
      "Ġwhile": 1119,
      "Ġfear": 1120,
      ",âĢĻ": 1121,
      "ious": 1122,
      "uth": 1123,
      "Ġseven": 1124,
      "Ġhar": 1125,
      "oÊ¹ab": 1126,
      "Ġfall": 1127,
      "Ġfield": 1128,
      "aron": 1129,
      "Ġvery": 1130,
      "act": 1131,
      "Ġfollow": 1132,
      "Ġonly": 1133,
      "Ġpo": 1134,
      "Ġthree": 1135,
      "Ġcoming": 1136,
      "yal": 1137,
      "vere": 1138,
      "Ġpass": 1139,
      "ody": 1140,
      "ĠAaron": 1141,
      "tain": 1142,
      "Ġmak": 1143,
      "ars": 1144,
      "Ġcons": 1145,
      "Ġpra": 1146,
      "Ġenem": 1147,
      "Ġmouth": 1148,
      "ove": 1149,
      "Ġliving": 1150,
      "Ġforefathers": 1151,
      "Ġvoice": 1152,
      "Ġbow": 1153,
      "ister": 1154,
      "Ġinhab": 1155,
      "ĠOne": 1156,
      "ĠThat": 1157,
      "Ġinhabit": 1158,
      "Ġold": 1159,
      "Ġnight": 1160,
      "!âĢĿ": 1161,
      "Ġsend": 1162,
      "Ġpower": 1163,
      "000": 1164,
      "hu": 1165,
      "Ġmother": 1166,
      "ĠHowever": 1167,
      "cause": 1168,
      "ring": 1169,
      "Ġopen": 1170,
      "Ġwhy": 1171,
      "Ġsilver": 1172,
      "ses": 1173,
      "Ġref": 1174,
      "ult": 1175,
      "Ġcoven": 1176,
      "Ġdiscip": 1177,
      "Ġmon": 1178,
      "Ġsur": 1179,
      "Ġkings": 1180,
      "Ġarmies": 1181,
      "Ġsea": 1182,
      "Ġanyone": 1183,
      ".âĢĻ+": 1184,
      "Ġdev": 1185,
      "Ġcovenant": 1186,
      "Ġposs": 1187,
      "Ġside": 1188,
      "Ġtoward": 1189,
      "ĠOn": 1190,
      "Ġglory": 1191,
      "sa": 1192,
      "sed": 1193,
      "Ġ5": 1194,
      "Ġshow": 1195,
      "Ġchief": 1196,
      "Ġcamp": 1197,
      "If": 1198,
      "we": 1199,
      "Ê¹ah": 1200,
      "Ġinc": 1201,
      "Ġwithout": 1202,
      "Ġdaughter": 1203,
      "Ġchildren": 1204,
      "Ġmonth": 1205,
      "Ġbir": 1206,
      "ĠPhi": 1207,
      "Ġcommanded": 1208,
      "Ġgat": 1209,
      "Ġwit": 1210,
      "ices": 1211,
      "vereign": 1212,
      "Ġtold": 1213,
      "Ġdead": 1214,
      "Ġbless": 1215,
      "ĠLev": 1216,
      "ĠAl": 1217,
      "Ġgoing": 1218,
      "ds": 1219,
      "aster": 1220,
      "lÊ¹o": 1221,
      "zÊ¹": 1222,
      "ĠAr": 1223,
      "ĠSovereign": 1224,
      "med": 1225,
      "Ġlaw": 1226,
      "Ġbeing": 1227,
      "aby": 1228,
      "lisÊ¹t": 1229,
      "Ġdie": 1230,
      "Ġnothing": 1231,
      "Ġmeet": 1232,
      "ĠSolÊ¹o": 1233,
      "sy": 1234,
      "Ġinher": 1235,
      "cept": 1236,
      "Ġpeace": 1237,
      "Ġinherit": 1238,
      "aÊ¹n": 1239,
      "abylon": 1240,
      "Ġinst": 1241,
      "ĠMy": 1242,
      "Ġsame": 1243,
      "Ġnear": 1244,
      "ĠBabylon": 1245,
      "Ġgrain": 1246,
      "Ġfell": 1247,
      "Ġground": 1248,
      "Ġlight": 1249,
      "ning": 1250,
      "Ġtem": 1251,
      "ĠWith": 1252,
      "Ġface": 1253,
      "Ġcomp": 1254,
      "Ġchar": 1255,
      "erness": 1256,
      "Ġcub": 1257,
      "Ġwhole": 1258,
      "Ġpray": 1259,
      "Ġwilderness": 1260,
      "Ġforever": 1261,
      "Ġburnt": 1262,
      "Ġsm": 1263,
      "Ġbad": 1264,
      "Ġburn": 1265,
      "aces": 1266,
      "Ġserve": 1267,
      "liÊ¹": 1268,
      "Ġstru": 1269,
      "Ġmid": 1270,
      "Ġcho": 1271,
      "Ġpers": 1272,
      "Ġnam": 1273,
      "ang": 1274,
      "Ġthemselves": 1275,
      "Ġrece": 1276,
      "Ġrighteousness": 1277,
      "Ġte": 1278,
      "Ġconc": 1279,
      "lesh": 1280,
      "Ġangel": 1281,
      "ĠU": 1282,
      "Ġpossess": 1283,
      "Ġcould": 1284,
      "Ġcarry": 1285,
      "Ġhel": 1286,
      "Ġbeh": 1287,
      ":+": 1288,
      "Ġbre": 1289,
      "Ġfull": 1290,
      "Ê¹aoh": 1291,
      "ointed": 1292,
      "ared": 1293,
      "sp": 1294,
      "Ġflesh": 1295,
      "ĠYour": 1296,
      "Ê¹l": 1297,
      "ĠHis": 1298,
      "Ġloyal": 1299,
      "Ġfood": 1300,
      "Ġ12": 1301,
      "ark": 1302,
      "Ġfar": 1303,
      "stand": 1304,
      "ĠPharÊ¹aoh": 1305,
      "yard": 1306,
      "Ġbread": 1307,
      "Ġhere": 1308,
      "Ġcapt": 1309,
      "What": 1310,
      "attle": 1311,
      "Ġfind": 1312,
      "ones": 1313,
      "ĠNe": 1314,
      "Ġarmy": 1315,
      "ished": 1316,
      "Ġbelong": 1317,
      "ial": 1318,
      "ting": 1319,
      "lic": 1320,
      "?âĢĿ+": 1321,
      "itten": 1322,
      "ĠLevites": 1323,
      "Ġstruck": 1324,
      "He": 1325,
      "Ġcour": 1326,
      "ĠBeth": 1327,
      "Ġsan": 1328,
      "Ġsound": 1329,
      "Ġfour": 1330,
      "Ġmeans": 1331,
      "cend": 1332,
      "ĠFather": 1333,
      "Ġbull": 1334,
      "ĠThese": 1335,
      "Ġnever": 1336,
      "Ġwritten": 1337,
      "Ġwitness": 1338,
      "Ġstri": 1339,
      "Ġunclean": 1340,
      "!+": 1341,
      "Ġgen": 1342,
      "Ġpresent": 1343,
      "ram": 1344,
      "rew": 1345,
      "Ġdied": 1346,
      "Ġpart": 1347,
      "Ġinheritance": 1348,
      "Ġget": 1349,
      "Ġsanct": 1350,
      "ble": 1351,
      "ched": 1352,
      "Ġoil": 1353,
      "Ġfru": 1354,
      "reg": 1355,
      "omet": 1356,
      "oseph": 1357,
      "Ġtaken": 1358,
      "Ġperson": 1359,
      "Ġgr": 1360,
      "Ġkind": 1361,
      "atter": 1362,
      "Ġthir": 1363,
      "ĠRe": 1364,
      "Ġwall": 1365,
      "Ġtribe": 1366,
      "Ġgods": 1367,
      "Ġfine": 1368,
      "Ġprom": 1369,
      "aÊ¹m": 1370,
      "ĠBecause": 1371,
      "Ġtemple": 1372,
      "lied": 1373,
      "Ġthr": 1374,
      "ĠJoseph": 1375,
      "Ġgate": 1376,
      "ĠMay": 1377,
      "Ġdoing": 1378,
      "Ġlead": 1379,
      "Ġanger": 1380,
      "Ġcontinued": 1381,
      "omething": 1382,
      "Ġprin": 1383,
      "Ġwaters": 1384,
      "Ġstrong": 1385,
      "lisÊ¹tines": 1386,
      "ĠJews": 1387,
      "roy": 1388,
      "Ġspoke": 1389,
      "aves": 1390,
      "raham": 1391,
      "uch": 1392,
      "Ġlive": 1393,
      "Ġ(": 1394,
      "Ġpur": 1395,
      "arted": 1396,
      "Ġdestroy": 1397,
      "ches": 1398,
      "Ġsomething": 1399,
      "Ġprophet": 1400,
      "Ġcubits": 1401,
      "ertain": 1402,
      "Ġyet": 1403,
      "uÊ¹": 1404,
      "ĠFrom": 1405,
      "Ġbuild": 1406,
      "Ġdaughters": 1407,
      "Ġlord": 1408,
      "ention": 1409,
      "Ġhold": 1410,
      "Ġfeet": 1411,
      "Ġmale": 1412,
      "Ġcal": 1413,
      "ified": 1414,
      "Ġturned": 1415,
      "ĠAbraham": 1416,
      "Ġdisciples": 1417,
      "Ġhelp": 1418,
      "Ġwine": 1419,
      "Ġfav": 1420,
      "Ġev": 1421,
      "Ġyourselves": 1422,
      "Ġeverything": 1423,
      "ween": 1424,
      "ced": 1425,
      "day": 1426,
      "ix": 1427,
      "kiÊ¹ah": 1428,
      "ret": 1429,
      "Ġcong": 1430,
      "Ġnum": 1431,
      "Ġexp": 1432,
      "ps": 1433,
      "Ġwis": 1434,
      "hold": 1435,
      "Ġrel": 1436,
      "Ġtimes": 1437,
      "uring": 1438,
      "ĠMa": 1439,
      "Ġjoy": 1440,
      "ĠAmÊ¹": 1441,
      "Do": 1442,
      "Ġcut": 1443,
      "ens": 1444,
      "Ġyourself": 1445,
      "Ġenemies": 1446,
      "And": 1447,
      "Ġ6": 1448,
      "right": 1449,
      "Ġsure": 1450,
      "Ġbetween": 1451,
      "not": 1452,
      "oud": 1453,
      "Ġboth": 1454,
      "Ġmar": 1455,
      "ash": 1456,
      "ling": 1457,
      "Ġsk": 1458,
      "Ġhum": 1459,
      "Ġbo": 1460,
      "ons": 1461,
      "Ġplease": 1462,
      "Ġfavor": 1463,
      "Ġcongreg": 1464,
      "Ġhapp": 1465,
      "Ġmeas": 1466,
      "Ġstill": 1467,
      "Ġgarments": 1468,
      ",âĢĿ": 1469,
      "Ġsat": 1470,
      "ail": 1471,
      "oved": 1472,
      "ff": 1473,
      "Ġwind": 1474,
      "Ġsla": 1475,
      "Ġcannot": 1476,
      "Ġprophets": 1477,
      "ĠJos": 1478,
      "Ġspok": 1479,
      "ute": 1480,
      "Ġreb": 1481,
      "Ġrec": 1482,
      "Ġofferings": 1483,
      "Ġpleas": 1484,
      "Ġwhe": 1485,
      "Ġanim": 1486,
      "Ġconcern": 1487,
      "Ġgener": 1488,
      "den": 1489,
      "ike": 1490,
      "ily": 1491,
      "Ġcrow": 1492,
      "Ġasked": 1493,
      "zar": 1494,
      "ĠBen": 1495,
      "Ġpeoples": 1496,
      "Ġforeign": 1497,
      "Ġinhabitants": 1498,
      "Ġspoken": 1499,
      "Ġmorn": 1500,
      "Ġanything": 1501,
      "Ġwomen": 1502,
      "hua": 1503,
      "jah": 1504,
      "hered": 1505,
      "Ġpast": 1506,
      "semb": 1507,
      "Ġseen": 1508,
      "ĠJoshua": 1509,
      "erc": 1510,
      "Ġcr": 1511,
      "Ġdet": 1512,
      "Ġmorning": 1513,
      "ured": 1514,
      "Ġdiv": 1515,
      "Ġspeaking": 1516,
      "ks": 1517,
      "vers": 1518,
      "ĠLook": 1519,
      "ĠOr": 1520,
      "Ġsign": 1521,
      "Ġresc": 1522,
      "Ġcur": 1523,
      "Ġever": 1524,
      "Ġmighty": 1525,
      "Ġbody": 1526,
      "Ġtoo": 1527,
      "Ġdark": 1528,
      "Ġsheep": 1529,
      "vest": 1530,
      "Ġtra": 1531,
      "ĠWe": 1532,
      "alley": 1533,
      "oney": 1534,
      "asting": 1535,
      "Ġunderstand": 1536,
      "Ġobs": 1537,
      "Ġwisdom": 1538,
      "Ġwant": 1539,
      "ense": 1540,
      "Ġstone": 1541,
      "Ġcomes": 1542,
      "Ġkingdom": 1543,
      "Ġfruit": 1544,
      "ying": 1545,
      "Ê¹d": 1546,
      "lee": 1547,
      "Ġanswered": 1548,
      "up": 1549,
      "ision": 1550,
      "ater": 1551,
      "ĠNo": 1552,
      "Ġpraise": 1553,
      "Look": 1554,
      "ĠSon": 1555,
      "Ġhouses": 1556,
      "for": 1557,
      "Ġcertain": 1558,
      "Ġmyself": 1559,
      "Ġknown": 1560,
      "Ġstreng": 1561,
      "cc": 1562,
      "phra": 1563,
      "Ġappro": 1564,
      "Go": 1565,
      "Ġopp": 1566,
      "Ġstanding": 1567,
      "born": 1568,
      "ined": 1569,
      "Ġtoday": 1570,
      "Ġram": 1571,
      "Ġsal": 1572,
      "Ġwhose": 1573,
      "Ġassemb": 1574,
      "ĠZe": 1575,
      "Ġworks": 1576,
      "error": 1577,
      "raid": 1578,
      "Ġreplied": 1579,
      "Ġdescend": 1580,
      "iah": 1581,
      "imÊ¹e": 1582,
      "Ġsacrifices": 1583,
      "Ġdwelling": 1584,
      "ĠJord": 1585,
      "Ġflock": 1586,
      "ully": 1587,
      "Ġprinces": 1588,
      "ĠJordan": 1589,
      "Ġtree": 1590,
      "Ġap": 1591,
      "Ġbound": 1592,
      "Ġgot": 1593,
      ".âĢĻâĢĿ": 1594,
      "Ġanswer": 1595,
      "Ġfin": 1596,
      "Ġsupp": 1597,
      "Ġbro": 1598,
      "amb": 1599,
      "ros": 1600,
      "ĠMoÊ¹ab": 1601,
      "ls": 1602,
      "und": 1603,
      "Ê¹se": 1604,
      "Ġcomple": 1605,
      "Ġnew": 1606,
      "fully": 1607,
      "Ġpill": 1608,
      "ached": 1609,
      "Ġplaces": 1610,
      "Ġcourt": 1611,
      "âĢľ": 1612,
      "ĠLike": 1613,
      "Ġafraid": 1614,
      "Ġgathered": 1615,
      "ned": 1616,
      "ĠLaw": 1617,
      "aÊ¹d": 1618,
      "xt": 1619,
      "rem": 1620,
      "Ġcare": 1621,
      "Ġread": 1622,
      "Ġstay": 1623,
      "ĠWhy": 1624,
      "Ġreturned": 1625,
      "Ġpossession": 1626,
      "Ġ7": 1627,
      "eds": 1628,
      "arÊ¹i": 1629,
      "Ġeld": 1630,
      "irc": 1631,
      "Ġgiving": 1632,
      "Ġsomeone": 1633,
      "Ġbirth": 1634,
      "Ġconcerning": 1635,
      "ired": 1636,
      "hem": 1637,
      "Ġcop": 1638,
      "ĠSe": 1639,
      "than": 1640,
      "Ġworld": 1641,
      ".âĢĻâĢĿ+": 1642,
      "Ġsacrifice": 1643,
      "Ġforg": 1644,
      "riÊ¹ah": 1645,
      "Ġguard": 1646,
      "Ġ20": 1647,
      "Ġsurely": 1648,
      "Ġcry": 1649,
      "ledge": 1650,
      "Ġinstru": 1651,
      "Ġthird": 1652,
      "bÊ¹": 1653,
      "Ġbattle": 1654,
      "Ġclean": 1655,
      "odu": 1656,
      "Ġelders": 1657,
      "Now": 1658,
      "aid": 1659,
      "li": 1660,
      "Ġthing": 1661,
      "ĠTheir": 1662,
      "ront": 1663,
      "Ġhop": 1664,
      "erve": 1665,
      "iÊ¹a": 1666,
      "Ġsins": 1667,
      "Ġregion": 1668,
      "Ġgif": 1669,
      "Ġslave": 1670,
      "ni": 1671,
      "Ġmess": 1672,
      "ately": 1673,
      "Ġcau": 1674,
      "Ê¹p": 1675,
      "Ġstood": 1676,
      "Ġseek": 1677,
      "Ġappointed": 1678,
      "ĠEÊ¹phra": 1679,
      "Ġsecond": 1680,
      "Ġmuch": 1681,
      "ither": 1682,
      "Ġpie": 1683,
      "Ġconf": 1684,
      "Ġprov": 1685,
      "ĠTherefore": 1686,
      "Ġmaking": 1687,
      "spring": 1688,
      "esc": 1689,
      "ots": 1690,
      "amin": 1691,
      "Ġoffspring": 1692,
      "Ġ19": 1693,
      "ship": 1694,
      "Ġbuilt": 1695,
      "ized": 1696,
      "og": 1697,
      "rance": 1698,
      "Ġcause": 1699,
      "Ġprodu": 1700,
      "boÊ¹": 1701,
      "Ġest": 1702,
      "hose": 1703,
      "Ġvine": 1704,
      "Ġprost": 1705,
      "Ġresp": 1706,
      "Ġmountains": 1707,
      "Why": 1708,
      "Ġjudgment": 1709,
      "Ġthrone": 1710,
      "Ġcongregation": 1711,
      "ĠSam": 1712,
      "rag": 1713,
      "Ġsave": 1714,
      "ĠMe": 1715,
      "Ġalive": 1716,
      "Ġlonger": 1717,
      "ĠWhat": 1718,
      "ason": 1719,
      "aÊ¹b": 1720,
      "pped": 1721,
      "Ġnamed": 1722,
      "Ġteach": 1723,
      "ran": 1724,
      "Ġwo": 1725,
      "Ġfront": 1726,
      "erved": 1727,
      "ened": 1728,
      "arge": 1729,
      "ĠAn": 1730,
      "Ġdef": 1731,
      "Ġsun": 1732,
      "In": 1733,
      "bath": 1734,
      "nas": 1735,
      "vation": 1736,
      "ins": 1737,
      "Ġmerc": 1738,
      "Ġcreat": 1739,
      "lease": 1740,
      "Ġnews": 1741,
      "?âĢĻ": 1742,
      "Je": 1743,
      "Ġmin": 1744,
      "Ġmaster": 1745,
      "Ġguilt": 1746,
      "Ġgather": 1747,
      "Ġspread": 1748,
      "Ġenter": 1749,
      "Ġprep": 1750,
      "Ġchari": 1751,
      "Ġsing": 1752,
      "Ġways": 1753,
      "Ġpay": 1754,
      "ilies": 1755,
      "Ġbelie": 1756,
      "mer": 1757,
      "ember": 1758,
      "Ġmidst": 1759,
      "Ġpat": 1760,
      "Ġrejoice": 1761,
      "Ġtruth": 1762,
      "ject": 1763,
      "Ġcount": 1764,
      "eng": 1765,
      "Ġsoon": 1766,
      "Ġheads": 1767,
      "Ġattention": 1768,
      "Ġfamily": 1769,
      "Ġpoor": 1770,
      "Ġsalvation": 1771,
      "Ġwise": 1772,
      "Ġshame": 1773,
      "aÊ¹na": 1774,
      "It": 1775,
      "Ġfive": 1776,
      "ĠGil": 1777,
      ".âĢĿâĢĻ": 1778,
      "ĠCaÊ¹na": 1779,
      "Ġdisg": 1780,
      "Ġoutside": 1781,
      "ify": 1782,
      "Ġable": 1783,
      "Ġcloth": 1784,
      "Ġglor": 1785,
      "Ġrecei": 1786,
      "Ġstrength": 1787,
      "eal": 1788,
      "Ġonce": 1789,
      "Ġstones": 1790,
      "ittle": 1791,
      "Ġcopper": 1792,
      "!âĢĻ": 1793,
      "ner": 1794,
      "Ġhorn": 1795,
      "ison": 1796,
      "Ġdistress": 1797,
      "Ġevil": 1798,
      "Ġcomplet": 1799,
      "Ġborn": 1800,
      "Ê¹sa": 1801,
      "eter": 1802,
      "Ġext": 1803,
      "ways": 1804,
      "ĠCaÊ¹naan": 1805,
      "vent": 1806,
      "head": 1807,
      "Ġdire": 1808,
      "Ġbear": 1809,
      "Ġhal": 1810,
      "Ġkill": 1811,
      "ĠZion": 1812,
      "Ġdon": 1813,
      "ĠEl": 1814,
      "Ġfamilies": 1815,
      "Ġcertainly": 1816,
      "Ġassembly": 1817,
      "Let": 1818,
      "urther": 1819,
      "Ġentrance": 1820,
      "Ġjudge": 1821,
      "boÊ¹am": 1822,
      "esh": 1823,
      "Ġnation": 1824,
      "ows": 1825,
      "Ġreign": 1826,
      "key": 1827,
      "icing": 1828,
      "Ġknowledge": 1829,
      "Ġraised": 1830,
      "Ġdonkey": 1831,
      "Ġlittle": 1832,
      "Ġadv": 1833,
      "Ġmakes": 1834,
      "Ġmeeting": 1835,
      ";*": 1836,
      "There": 1837,
      "she": 1838,
      "Ġbeast": 1839,
      "ĠWill": 1840,
      "ĠDan": 1841,
      "ĠPaul": 1842,
      "ĠPeter": 1843,
      "Ġevening": 1844,
      "pe": 1845,
      "rÊ¹i": 1846,
      "Ġesc": 1847,
      "Ġcle": 1848,
      "Ġnumber": 1849,
      "Ġdarkness": 1850,
      "ual": 1851,
      "Ê¹c": 1852,
      "Ê¹sh": 1853,
      "ĠThose": 1854,
      "Ġeast": 1855,
      "Ġoffic": 1856,
      "ages": 1857,
      "itting": 1858,
      "Ġcalam": 1859,
      "Ġcrowd": 1860,
      "uel": 1861,
      "Ġdri": 1862,
      "Ġgoat": 1863,
      "Ġwatch": 1864,
      "We": 1865,
      "jamin": 1866,
      "man": 1867,
      "ition": 1868,
      "Ġgone": 1869,
      "Ġsuch": 1870,
      "Ġcover": 1871,
      "Ġsett": 1872,
      "Ġslaught": 1873,
      "Ġtrees": 1874,
      "remiah": 1875,
      "Ġwa": 1876,
      "ĠJeremiah": 1877,
      "Ġresid": 1878,
      "Ġaccount": 1879,
      "Ġtrust": 1880,
      "Ġfaithful": 1881,
      "For": 1882,
      "ush": 1883,
      "Ġregul": 1884,
      "ize": 1885,
      "syrÊ¹i": 1886,
      "ĠBenjamin": 1887,
      "Ġmercy": 1888,
      "ken": 1889,
      "men": 1890,
      "Ġmoney": 1891,
      "Ġlarge": 1892,
      "aled": 1893,
      "Ġworth": 1894,
      "Ġcommit": 1895,
      "Ġfirstborn": 1896,
      "Ê¹seh": 1897,
      "nasÊ¹seh": 1898,
      "Who": 1899,
      "When": 1900,
      "ead": 1901,
      "isions": 1902,
      "ĠJoÊ¹ab": 1903,
      "Ġpract": 1904,
      "Ġhearts": 1905,
      "Ġentire": 1906,
      "uthor": 1907,
      "ircum": 1908,
      "Ġestab": 1909,
      "Ġten": 1910,
      "ĠSy": 1911,
      "ents": 1912,
      "Ġkilled": 1913,
      "ands": 1914,
      "Here": 1915,
      "Ġescap": 1916,
      "Ġid": 1917,
      "ĠSa": 1918,
      "Ġhousehold": 1919,
      "Ġeveryone": 1920,
      "Ġhope": 1921,
      "Ġcor": 1922,
      "ution": 1923,
      "Ġwhoever": 1924,
      "Ġdefe": 1925,
      "ĠAlso": 1926,
      "pher": 1927,
      "Ġut": 1928,
      "Ġfight": 1929,
      "Ġdel": 1930,
      "Ġbringing": 1931,
      "Ġimp": 1932,
      "Ġdetest": 1933,
      "Ġhalf": 1934,
      "Ġcalamity": 1935,
      "ues": 1936,
      "Ġlaid": 1937,
      "Ġund": 1938,
      "Ġweep": 1939,
      "Ġstum": 1940,
      "though": 1941,
      "Ġaband": 1942,
      "Ġjustice": 1943,
      "onÊ¹a": 1944,
      "Ġothers": 1945,
      "Ġadd": 1946,
      "Ġ40": 1947,
      "Ġcontinue": 1948,
      "Ġcourtyard": 1949,
      "Ġprostit": 1950,
      "aiÊ¹ah": 1951,
      "ĠY": 1952,
      "Ġtou": 1953,
      "Ġnorth": 1954,
      "Ġrejo": 1955,
      "Ġtrans": 1956,
      "Ġrefu": 1957,
      "ci": 1958,
      "the": 1959,
      "Ġerror": 1960,
      "Ġtab": 1961,
      "usb": 1962,
      "Ġabove": 1963,
      "Ġ10": 1964,
      "Ġsub": 1965,
      "Ġservice": 1966,
      "Ġcommandments": 1967,
      "Ġdestru": 1968,
      "Ġkindness": 1969,
      "Ġpastures": 1970,
      "Ġdescendants": 1971,
      "ircumc": 1972,
      "over": 1973,
      "Ġterr": 1974,
      "Ġhusb": 1975,
      "ĠBy": 1976,
      "ains": 1977,
      "laim": 1978,
      "Ġsacred": 1979,
      "ohn": 1980,
      "ross": 1981,
      "Ġpieces": 1982,
      "Ġminister": 1983,
      "!âĢĿ+": 1984,
      "As": 1985,
      "But": 1986,
      "aut": 1987,
      "iately": 1988,
      "mor": 1989,
      "ises": 1990,
      "ating": 1991,
      "Ġfort": 1992,
      "ĠArk": 1993,
      "mediately": 1994,
      "Ġwhether": 1995,
      "Ġtest": 1996,
      "Ġfilled": 1997,
      "onor": 1998,
      "Ġduring": 1999,
      "Ġthough": 2000,
      "Ġins": 2001,
      "Ġgrow": 2002,
      "Ġrequ": 2003,
      "Ġass": 2004,
      "ĠKingdom": 2005,
      "Ġobey": 2006,
      "marÊ¹i": 2007,
      "iled": 2008,
      "Ġnext": 2009,
      "Ġfollowing": 2010,
      "Ġsister": 2011,
      "Ġhor": 2012,
      "Ġhard": 2013,
      "imon": 2014,
      "Ġstat": 2015,
      "Ġdeep": 2016,
      "Ġused": 2017,
      "orses": 2018,
      "Ġperish": 2019,
      "ĠSyri": 2020,
      "Ġidol": 2021,
      "Ġabandon": 2022,
      "Be": 2023,
      "Ġtable": 2024,
      "Ġauthor": 2025,
      "Ġhid": 2026,
      "Ġbook": 2027,
      "Ġalways": 2028,
      "Ġfool": 2029,
      "Ġwalking": 2030,
      "ĠSamuel": 2031,
      "aac": 2032,
      "Ġtong": 2033,
      "acle": 2034,
      "estiv": 2035,
      "ĠIsaac": 2036,
      "Ġsold": 2037,
      "Ġbreak": 2038,
      "Ġmatter": 2039,
      "aced": 2040,
      "Ġ14": 2041,
      "Ġshepher": 2042,
      "eÊ¹b": 2043,
      "Ġsy": 2044,
      "Ġtor": 2045,
      "hoÊ¹": 2046,
      "Ġwid": 2047,
      "Ġstop": 2048,
      "ĠHez": 2049,
      "Ġaccept": 2050,
      "Ġboundary": 2051,
      "How": 2052,
      "ier": 2053,
      "oun": 2054,
      "Ġhorses": 2055,
      "Ġlamp": 2056,
      "Ġwithin": 2057,
      "ĠEven": 2058,
      "Ġsheke": 2059,
      "Ġcarried": 2060,
      "Ġdeparted": 2061,
      "ĠBethÊ¹": 2062,
      "ĠAmÊ¹mon": 2063,
      "ĠV": 2064,
      "Ġter": 2065,
      "iness": 2066,
      "isf": 2067,
      "Ġmo": 2068,
      "Ġbeaut": 2069,
      "ĠMount": 2070,
      "Ġcond": 2071,
      "Ġsecret": 2072,
      "Ġdestruction": 2073,
      "iol": 2074,
      "Ġlay": 2075,
      "ĠJohn": 2076,
      "ides": 2077,
      "alf": 2078,
      "ils": 2079,
      "Ġappear": 2080,
      "min": 2081,
      "Ġsouth": 2082,
      "ided": 2083,
      "els": 2084,
      "Ġwhatever": 2085,
      "Ġroad": 2086,
      "Ġgarment": 2087,
      "Ġrescue": 2088,
      "Ġwood": 2089,
      "cted": 2090,
      "ernal": 2091,
      "Ê¹ba": 2092,
      "Ġtreas": 2093,
      "Ġsatisf": 2094,
      "Ġanimals": 2095,
      "Ġpaternal": 2096,
      "sen": 2097,
      "Ġsix": 2098,
      "ene": 2099,
      "leep": 2100,
      "ĠHer": 2101,
      "Ġshout": 2102,
      "Ġdesol": 2103,
      "Ġchieft": 2104,
      "Ġsight": 2105,
      "ased": 2106,
      "Ġsurround": 2107,
      "Ġreceive": 2108,
      "Ġtabern": 2109,
      "flic": 2110,
      "niÊ¹ah": 2111,
      "tory": 2112,
      "Ġled": 2113,
      "ĠAsh": 2114,
      "Ġviol": 2115,
      "Ġregard": 2116,
      "Ġbehalf": 2117,
      "Ġstrike": 2118,
      "Ġdetestable": 2119,
      "ream": 2120,
      "eserved": 2121,
      "ĠJo": 2122,
      "ĠJoÊ¹": 2123,
      "ĠJonÊ¹a": 2124,
      "Ġlie": 2125,
      "oint": 2126,
      "Ġopened": 2127,
      "Ġpillars": 2128,
      "Ġundeserved": 2129,
      "Ġtabernacle": 2130,
      "ually": 2131,
      "Ġwives": 2132,
      "Ġsake": 2133,
      "Ġsince": 2134,
      "Ġbehind": 2135,
      "Ġterrit": 2136,
      "ziÊ¹ah": 2137,
      "Ê¹g": 2138,
      "Ġpit": 2139,
      "Ġport": 2140,
      "Ġlamb": 2141,
      "Ġproc": 2142,
      "Ġrose": 2143,
      "Ġlooked": 2144,
      "Ġrain": 2145,
      "Ġquick": 2146,
      "Ġchosen": 2147,
      "be": 2148,
      "ha": 2149,
      "Ġhu": 2150,
      "orted": 2151,
      "ĠGo": 2152,
      "Ġ13": 2153,
      "Ġleave": 2154,
      "Ġdeser": 2155,
      ",âĢĻ+": 2156,
      "Ġsmoke": 2157,
      "Ġgeneration": 2158,
      "venth": 2159,
      "Ġhusband": 2160,
      "ray": 2161,
      "Ġsick": 2162,
      "Ġfat": 2163,
      "ĠSab": 2164,
      "Ġarri": 2165,
      "Ġrul": 2166,
      "Ġslaves": 2167,
      "Ġconsum": 2168,
      "Ġobserve": 2169,
      "Ġvineyard": 2170,
      "Ġauthority": 2171,
      "Then": 2172,
      "lom": 2173,
      "ty": 2174,
      "Ġbes": 2175,
      "Ġfal": 2176,
      "Ġmour": 2177,
      "Ġhaving": 2178,
      "ĠSiÊ¹": 2179,
      "Ġseventh": 2180,
      "Ġlived": 2181,
      "Ġexal": 2182,
      "Ġneed": 2183,
      "Ġbetter": 2184,
      "Ġpurs": 2185,
      "Ġgift": 2186,
      "ĠGilÊ¹e": 2187,
      "app": 2188,
      "Ġmind": 2189,
      "Ġdra": 2190,
      "Ġlow": 2191,
      "Ġremember": 2192,
      "Ġgives": 2193,
      "Ġenc": 2194,
      "ĠEÊ¹dom": 2195,
      "Ġfoot": 2196,
      "Ġwarri": 2197,
      "Ġir": 2198,
      "Ġfree": 2199,
      "Ġsear": 2200,
      "Ġfled": 2201,
      "Ġattend": 2202,
      "ĠBaÊ¹al": 2203,
      "Ġunderstanding": 2204,
      "Ġmesseng": 2205,
      "Ġcaused": 2206,
      "Ġseeking": 2207,
      "ech": 2208,
      "ged": 2209,
      "ives": 2210,
      "Ġsitting": 2211,
      "Ġind": 2212,
      "ĠEvery": 2213,
      "phÊ¹": 2214,
      "Ġthanks": 2215,
      "Ġrun": 2216,
      "Ġreject": 2217,
      "Ġgates": 2218,
      "Ġbroken": 2219,
      "ĠSabbath": 2220,
      "+âĢĶ": 2221,
      "hiÊ¹": 2222,
      "ians": 2223,
      "zer": 2224,
      "oured": 2225,
      "Ġflee": 2226,
      "ĠJaÊ¹": 2227,
      "Ġreason": 2228,
      "Ġclot": 2229,
      "Ġquickly": 2230,
      "air": 2231,
      "uÊ¹b": 2232,
      "Ġahead": 2233,
      "Ġfact": 2234,
      "Ġdust": 2235,
      "acher": 2236,
      "ket": 2237,
      "Ġallow": 2238,
      "Ġalone": 2239,
      "Ġprison": 2240,
      "Ġcoll": 2241,
      "Ġ24": 2242,
      "Ġrepro": 2243,
      "Ġtribes": 2244,
      "Ġfalse": 2245,
      "dle": 2246,
      "ates": 2247,
      "aring": 2248,
      "ĠHaÊ¹": 2249,
      "ĠMore": 2250,
      "ĠOf": 2251,
      "Ġ11": 2252,
      "ready": 2253,
      "Ġtenth": 2254,
      "ĠYes": 2255,
      "ia": 2256,
      "Ġ9": 2257,
      "iting": 2258,
      "ilate": 2259,
      "Ġalready": 2260,
      "Ġ18": 2261,
      "Ġrise": 2262,
      "Ġfirm": 2263,
      "Ġwrong": 2264,
      "ĠAbÊ¹sa": 2265,
      "Ġblessed": 2266,
      "Ġcompan": 2267,
      "Ġprayer": 2268,
      "Ġreceived": 2269,
      "Ġterritory": 2270,
      "Ġoath": 2271,
      "Ġsum": 2272,
      "Ġgre": 2273,
      "Ġhair": 2274,
      "iful": 2275,
      "Ġabund": 2276,
      "Ġvalley": 2277,
      "Ġdisp": 2278,
      "sha": 2279,
      "Ġcloud": 2280,
      "ĠWhile": 2281,
      "lished": 2282,
      "ĠNeb": 2283,
      "Come": 2284,
      "gs": 2285,
      "Ġsn": 2286,
      "Ġhome": 2287,
      "Ġtop": 2288,
      "hoiÊ¹a": 2289,
      "Ġlion": 2290,
      "Ġdesp": 2291,
      "Ġthroughout": 2292,
      "Ġentered": 2293,
      "ĠAÊ¹sa": 2294,
      "Ġdevot": 2295,
      "Ġfellow": 2296,
      "Ġburning": 2297,
      "Ġrebu": 2298,
      "My": 2299,
      "Ġtear": 2300,
      "Ġmult": 2301,
      "Ġdream": 2302,
      "ĠJust": 2303,
      "vel": 2304,
      "lech": 2305,
      "Ġsaved": 2306,
      "Ġhour": 2307,
      "Ġexcept": 2308,
      "Ġdeclare": 2309,
      "Ġimmediately": 2310,
      "ible": 2311,
      "Ġsanctu": 2312,
      "Ġteaching": 2313,
      "gress": 2314,
      "Ġhonor": 2315,
      "Ġlivest": 2316,
      "Ġdoor": 2317,
      "Ġkne": 2318,
      "Ġclose": 2319,
      "ĠEÊ¹s": 2320,
      "Ġchiefs": 2321,
      "Ġtongue": 2322,
      "ĠValley": 2323,
      "Ġlivestock": 2324,
      "deÊ¹": 2325,
      "iver": 2326,
      "oc": 2327,
      "Ġinside": 2328,
      "ĠBeÊ¹": 2329,
      "Ġdeeds": 2330,
      "Ġneigh": 2331,
      "Ġneither": 2332,
      "Ġfamine": 2333,
      "Ġenemy": 2334,
      "estival": 2335,
      "of": 2336,
      "Ġwest": 2337,
      "Ġocc": 2338,
      "Ġsit": 2339,
      "Ġcast": 2340,
      "Ġcase": 2341,
      "ider": 2342,
      "alth": 2343,
      "ters": 2344,
      "shan": 2345,
      "Ġburied": 2346,
      "Ġspeech": 2347,
      "Ġmountainous": 2348,
      "liÊ¹jah": 2349,
      "Ġidols": 2350,
      "To": 2351,
      "ten": 2352,
      "Ġpath": 2353,
      "Ġinv": 2354,
      "Ġloud": 2355,
      "owing": 2356,
      "ĠSt": 2357,
      "Ġprof": 2358,
      "Ġ23": 2359,
      "Ġrock": 2360,
      "Ġhearing": 2361,
      "ibÊ¹e": 2362,
      "Ġ50": 2363,
      "Ġbelongs": 2364,
      "Ġsanctuary": 2365,
      "ĠEÊ¹sau": 2366,
      "hel": 2367,
      "inen": 2368,
      "iss": 2369,
      "Ġmost": 2370,
      "Ġthought": 2371,
      "ets": 2372,
      "order": 2373,
      "ĠDe": 2374,
      "ulf": 2375,
      "Ġsuff": 2376,
      "Ġreply": 2377,
      "Ġstret": 2378,
      "Ġutens": 2379,
      "Ġhur": 2380,
      "Ġpal": 2381,
      "Ġlinen": 2382,
      "Ġhistory": 2383,
      "rage": 2384,
      "ĠLeÊ¹": 2385,
      "aÊ¹a": 2386,
      "osed": 2387,
      "Ġrich": 2388,
      "Ġ30": 2389,
      "attered": 2390,
      "Ġfollowed": 2391,
      "Ġapart": 2392,
      "Ġneighb": 2393,
      "bed": 2394,
      "lasting": 2395,
      "vi": 2396,
      "ourage": 2397,
      "ited": 2398,
      "Ġcher": 2399,
      "Ġlast": 2400,
      "Ġdemon": 2401,
      "ĠFurther": 2402,
      "ĠNor": 2403,
      "Ġplant": 2404,
      "Ġroom": 2405,
      "Ġacts": 2406,
      "ĠPharise": 2407,
      "Ġmeasure": 2408,
      "ĠMoreover": 2409,
      "Take": 2410,
      "eep": 2411,
      "ik": 2412,
      "Ġinter": 2413,
      "Ġem": 2414,
      "ently": 2415,
      "ĠHaÊ¹m": 2416,
      "ored": 2417,
      "istered": 2418,
      "phat": 2419,
      "Ġears": 2420,
      "Ġrefuge": 2421,
      "Ġfortified": 2422,
      "Ġdesolate": 2423,
      "Ġutensils": 2424,
      ",âĢĿ+": 2425,
      "Ġast": 2426,
      "Ġsort": 2427,
      "Ġhate": 2428,
      "Ġthrow": 2429,
      "utes": 2430,
      "ĠHo": 2431,
      "antly": 2432,
      "Ġoffered": 2433,
      "Ġunion": 2434,
      "Ê¹na": 2435,
      "Ê¹nah": 2436,
      "Ġafflic": 2437,
      "Ġharm": 2438,
      "Ġrefus": 2439,
      "Ġcaptured": 2440,
      "Ġcurse": 2441,
      "Ġeverlasting": 2442,
      "Ġcompletely": 2443,
      "Ġrequest": 2444,
      "Ġiron": 2445,
      "Is": 2446,
      "nant": 2447,
      "Ġaw": 2448,
      "Ġbas": 2449,
      "Ġmel": 2450,
      "Ġpun": 2451,
      "Ġthous": 2452,
      "Ġwide": 2453,
      "roll": 2454,
      "Ġlies": 2455,
      "Ġlips": 2456,
      "icial": 2457,
      "Ġsinned": 2458,
      "Ġreport": 2459,
      "Ġpresence": 2460,
      "Ġburned": 2461,
      "Ġrebell": 2462,
      "Ġapost": 2463,
      "Ġcup": 2464,
      "Ġlying": 2465,
      "Ġstra": 2466,
      "Ġbecom": 2467,
      "ĠIsh": 2468,
      "ushed": 2469,
      "Ġgover": 2470,
      "Ġvision": 2471,
      "Ġgreater": 2472,
      "Ġbegin": 2473,
      "bÊ¹u": 2474,
      "ircumcised": 2475,
      "ped": 2476,
      "rus": 2477,
      "Ġbones": 2478,
      "Ġfem": 2479,
      "Ġdif": 2480,
      "Ġgir": 2481,
      "ĠGra": 2482,
      "ĠGibÊ¹e": 2483,
      "Ġbran": 2484,
      "Ġark": 2485,
      "ĠAÊ¹hab": 2486,
      "Ġpromised": 2487,
      "Ġskin": 2488,
      "Ġproclaim": 2489,
      "oil": 2490,
      "Ġ8": 2491,
      "Ġbed": 2492,
      "Ġbapt": 2493,
      "Ġfast": 2494,
      "Ġpour": 2495,
      "ury": 2496,
      "iced": 2497,
      "Ġate": 2498,
      "onement": 2499,
      "ĠNa": 2500,
      "Ġcommun": 2501,
      "Ġeye": 2502,
      "Ġsmall": 2503,
      "Ġhappen": 2504,
      "Ġanimal": 2505,
      "nih": 2506,
      "Ġbelieve": 2507,
      "Ġdisgust": 2508,
      "Ġdirect": 2509,
      "Ġestablished": 2510,
      "Ġtransgress": 2511,
      "Ġgovern": 2512,
      "ĠBar": 2513,
      "Ġannih": 2514,
      "Ġsex": 2515,
      "Ġdeal": 2516,
      "Ġshare": 2517,
      "chad": 2518,
      "Ġremoved": 2519,
      "nezÊ¹": 2520,
      "Ġwrath": 2521,
      "Ġregistered": 2522,
      "Ġangels": 2523,
      "Ġoppress": 2524,
      "Ġfinished": 2525,
      "Ġproduce": 2526,
      "Ġprepared": 2527,
      "Ġescape": 2528,
      "uÊ¹ben": 2529,
      "nezÊ¹zar": 2530,
      "da": 2531,
      "under": 2532,
      "ining": 2533,
      "Ġmur": 2534,
      "Ġdry": 2535,
      "Ġuse": 2536,
      "ĠGad": 2537,
      "Ġrod": 2538,
      "ĠChal": 2539,
      "Ġlooking": 2540,
      "ĠReuÊ¹ben": 2541,
      "Ġrejoicing": 2542,
      "Ġfemale": 2543,
      "gin": 2544,
      "wise": 2545,
      "Ġsleep": 2546,
      "Ġce": 2547,
      "Ġpure": 2548,
      "Ġlater": 2549,
      "Ġatonement": 2550,
      "Ġconst": 2551,
      "Ġfathers": 2552,
      "Ġcontrib": 2553,
      "They": 2554,
      "Ġraise": 2555,
      "Ġfeel": 2556,
      "Ġchariots": 2557,
      "Ġwarriors": 2558,
      "line": 2559,
      "Ġtrou": 2560,
      "Ġbore": 2561,
      "Ġpoured": 2562,
      "Ġjoin": 2563,
      "Ġhanded": 2564,
      "Ġswore": 2565,
      "Ġruin": 2566,
      "Ġacted": 2567,
      "Ġtremb": 2568,
      "Ġharvest": 2569,
      "Ġcherub": 2570,
      "inally": 2571,
      "Ġboy": 2572,
      "Ġpan": 2573,
      "Ġpub": 2574,
      "Ġinner": 2575,
      "hosh": 2576,
      "ĠJeÊ¹": 2577,
      "Ġupright": 2578,
      "ching": 2579,
      "Ġexile": 2580,
      "Ġblind": 2581,
      "Ġcove": 2582,
      "Ġprophesy": 2583,
      "Ġobject": 2584,
      "Ġattack": 2585,
      "Ġtaking": 2586,
      "Ê¹lah": 2587,
      "ĠAmÊ¹or": 2588,
      "Ġready": 2589,
      "Ġsuffer": 2590,
      "Ġcommunion": 2591,
      "Ġpublic": 2592,
      "der": 2593,
      "ec": 2594,
      "wor": 2595,
      "Ġtreat": 2596,
      "Ġstake": 2597,
      "Ġ15": 2598,
      "law": 2599,
      "Ġfail": 2600,
      "Ġremained": 2601,
      "ĠWhoever": 2602,
      "hoshÊ¹a": 2603,
      "eared": 2604,
      "Ġbit": 2605,
      "ĠAd": 2606,
      "riend": 2607,
      "ĠGal": 2608,
      "Ġrid": 2609,
      "Ġflour": 2610,
      "Ġeating": 2611,
      "Ġwalked": 2612,
      "Ġfallen": 2613,
      "Ġincense": 2614,
      "Ġdestroyed": 2615,
      "Ġportion": 2616,
      "Ġhung": 2617,
      "ĠPharisees": 2618,
      "Ġcovered": 2619,
      "iel": 2620,
      "oe": 2621,
      "ince": 2622,
      "Ġbene": 2623,
      "Ġtow": 2624,
      "arle": 2625,
      "leb": 2626,
      "Ġreached": 2627,
      "Ġanointed": 2628,
      "Ġ100": 2629,
      "Ġworship": 2630,
      "ĠSea": 2631,
      "Ġshekels": 2632,
      "Ġarrived": 2633,
      "haz": 2634,
      "Ġtry": 2635,
      "Ġfig": 2636,
      "Ġfriend": 2637,
      "Ġmil": 2638,
      "Ġcattle": 2639,
      "Ġgri": 2640,
      "ote": 2641,
      "uted": 2642,
      "ility": 2643,
      "aked": 2644,
      "Ġloved": 2645,
      "Ġknows": 2646,
      "Ġgrant": 2647,
      "Ġslaughter": 2648,
      "Ġcommitted": 2649,
      "Ġcollect": 2650,
      "more": 2651,
      "to": 2652,
      "ising": 2653,
      "Ġfill": 2654,
      "Ġlear": 2655,
      "Ġform": 2656,
      "Ġweak": 2657,
      "Ġstarted": 2658,
      "Ġlif": 2659,
      "ĠFinally": 2660,
      "Ġunf": 2661,
      "Ġremove": 2662,
      "ney": 2663,
      "Ê¹ma": 2664,
      "Ġcharge": 2665,
      "Ġhorns": 2666,
      "lah": 2667,
      "rim": 2668,
      "uri": 2669,
      "Ġhill": 2670,
      "Ġcaught": 2671,
      "Ġthres": 2672,
      "Ġinqu": 2673,
      "Ġgain": 2674,
      "Ġseed": 2675,
      "Ġlives": 2676,
      "Ġdece": 2677,
      "Ġlands": 2678,
      "ĠEgyptians": 2679,
      "Ġperfor": 2680,
      "Ġblessing": 2681,
      "Ġmiddle": 2682,
      "Ġbulls": 2683,
      "Ġgenerations": 2684,
      "Ġreigned": 2685,
      "ĠDaniel": 2686,
      "Ġsettle": 2687,
      "Ġassign": 2688,
      "Ġfoolish": 2689,
      "Ġpunish": 2690,
      "yond": 2691,
      "Ġtri": 2692,
      "Ġborder": 2693,
      "Ġfut": 2694,
      "Ġfulf": 2695,
      "Ġmet": 2696,
      "Ġyes": 2697,
      "edi": 2698,
      "Ġnames": 2699,
      "Ġfourth": 2700,
      "Ġmessengers": 2701,
      "Ġbeginning": 2702,
      "Ġdisgusting": 2703,
      "Please": 2704,
      "Ġsor": 2705,
      "itÊ¹t": 2706,
      "Ġthink": 2707,
      "ange": 2708,
      "Ġformer": 2709,
      "Ġwealth": 2710,
      "urity": 2711,
      "ili": 2712,
      "ĠPas": 2713,
      "Ġdesire": 2714,
      "Ġimage": 2715,
      "Ġcamped": 2716,
      "Ġpromise": 2717,
      "Ġrams": 2718,
      "Ġclothing": 2719,
      "Ġsatisfied": 2720,
      "Ġsexual": 2721,
      "hath": 2722,
      "Ġwings": 2723,
      "Ġcross": 2724,
      "ĠAÊ¹b": 2725,
      "Ġreve": 2726,
      "Ġreally": 2727,
      "ĠMost": 2728,
      "ĠHebÊ¹": 2729,
      "iÊ¹jah": 2730,
      "sover": 2731,
      "Ġenough": 2732,
      "Ġpassed": 2733,
      "Ġabandoned": 2734,
      "Ġshepherd": 2735,
      "Ġterrif": 2736,
      "deÊ¹ans": 2737,
      "Ġgirl": 2738,
      "ĠPassover": 2739,
      "ĠHebÊ¹ron": 2740,
      "bled": 2741,
      "gu": 2742,
      "ging": 2743,
      "rs": 2744,
      "Ġmag": 2745,
      "Ġlab": 2746,
      "Ġexec": 2747,
      "eÊ¹zer": 2748,
      "Ġran": 2749,
      "ĠThus": 2750,
      "Ġappeared": 2751,
      "Ġcommandment": 2752,
      "Ġsilent": 2753,
      "Ġrelations": 2754,
      "Ġhappened": 2755,
      "Ġregulations": 2756,
      "Ġindign": 2757,
      "Ġbranches": 2758,
      "Ġbitter": 2759,
      "cho": 2760,
      "cus": 2761,
      "ham": 2762,
      "Ġill": 2763,
      "Ġche": 2764,
      "Ġcourage": 2765,
      "Ê¹er": 2766,
      "Ê¹ri": 2767,
      "Ê¹ites": 2768,
      "aries": 2769,
      "Ġlack": 2770,
      "Ġel": 2771,
      "Ġwash": 2772,
      "ops": 2773,
      "Ġshield": 2774,
      "Ġval": 2775,
      "avened": 2776,
      "Ġprev": 2777,
      "Ġstream": 2778,
      "Therefore": 2779,
      "Ġweeping": 2780,
      "Ġhorse": 2781,
      "Ġchieftain": 2782,
      "Ġneighbor": 2783,
      "ĠGrave": 2784,
      "No": 2785,
      "So": 2786,
      "non": 2787,
      "rent": 2788,
      "Ġced": 2789,
      "Ê¹z": 2790,
      "Ġheld": 2791,
      "Ġouter": 2792,
      "Ġgoes": 2793,
      "Your": 2794,
      "Ġreside": 2795,
      "Ê¹ta": 2796,
      "ended": 2797,
      "Ġslain": 2798,
      "azÊ¹a": 2799,
      "ixed": 2800,
      "Ġsigns": 2801,
      "Sel": 2802,
      "ires": 2803,
      "liÊ¹ah": 2804,
      "mp": 2805,
      "ms": 2806,
      "pes": 2807,
      "Ġinde": 2808,
      "Ġstor": 2809,
      ".âĢĿ*": 2810,
      ".âĢĿ*+": 2811,
      "aÊ¹zar": 2812,
      "Ġconce": 2813,
      "Ġvir": 2814,
      "ĠRem": 2815,
      "Ġ25": 2816,
      "Ġchariot": 2817,
      "Ġdefeated": 2818,
      "Ġlambs": 2819,
      "Ġsummon": 2820,
      "Selah": 2821,
      "Where": 2822,
      "Ġtown": 2823,
      "Ġinn": 2824,
      "Ġnone": 2825,
      "Ġgrew": 2826,
      "ript": 2827,
      "ĠMiÊ¹": 2828,
      "ical": 2829,
      "Ġdish": 2830,
      "ĠJerÊ¹i": 2831,
      "Ġfew": 2832,
      "Ġdeclared": 2833,
      "aps": 2834,
      "Ġjudgments": 2835,
      "Ġconsider": 2836,
      "Ġcarrying": 2837,
      "Ġstayed": 2838,
      "Ġcreatures": 2839,
      "Ġworthless": 2840,
      "Ġgrie": 2841,
      "bel": 2842,
      "bÊ¹a": 2843,
      "cious": 2844,
      "lish": 2845,
      "Ġfaces": 2846,
      "Ê¹k": 2847,
      "omp": 2848,
      "Ġspoil": 2849,
      "Ġalthough": 2850,
      "Ġship": 2851,
      "Ġseeing": 2852,
      "Ġcalling": 2853,
      "Ġgrand": 2854,
      "Ġdepart": 2855,
      "Ġsending": 2856,
      "Ġpowerful": 2857,
      "Ġbirds": 2858,
      "anged": 2859,
      "Ġclear": 2860,
      "Ġfaithfulness": 2861,
      "ĠSyria": 2862,
      "Because": 2863,
      "Ġhidden": 2864,
      "ĠBethÊ¹el": 2865,
      "Ġexalted": 2866,
      "appy": 2867,
      ";*+": 2868,
      "aith": 2869,
      "ere": 2870,
      "kim": 2871,
      "sing": 2872,
      "Ġban": 2873,
      "Ġdro": 2874,
      "idÊ¹i": 2875,
      "Ġreal": 2876,
      "Ġyours": 2877,
      "ales": 2878,
      "ĠNot": 2879,
      "isted": 2880,
      "Ġproper": 2881,
      "Ġexam": 2882,
      "Ġearly": 2883,
      "ĠRiver": 2884,
      "Ġswear": 2885,
      "Ġeaten": 2886,
      "ĠLebÊ¹a": 2887,
      "Ġremaining": 2888,
      "Ġbeautiful": 2889,
      "cah": 2890,
      "ior": 2891,
      "ouds": 2892,
      "Ġfestival": 2893,
      "Ġgrou": 2894,
      "ĠAz": 2895,
      "ĠCa": 2896,
      "ĠEach": 2897,
      "Ġacqu": 2898,
      "ĠReÊ¹": 2899,
      "Ġbowed": 2900,
      "Ġincl": 2901,
      "Ġcompass": 2902,
      "Ġbreast": 2903,
      "Ġrescued": 2904,
      "Ġempt": 2905,
      "Ġrefused": 2906,
      "Ġinnoc": 2907,
      "ught": 2908,
      "Ġfish": 2909,
      "Ê¹ph": 2910,
      "Ê¹ne": 2911,
      "Ġline": 2912,
      "Ġreward": 2913,
      "ĠSimon": 2914,
      "raise": 2915,
      "Ġsong": 2916,
      "ĠMidÊ¹i": 2917,
      "resp": 2918,
      "Ġroyal": 2919,
      "ĠInst": 2920,
      "Ġscattered": 2921,
      "Ġbeloved": 2922,
      "Ġwickedness": 2923,
      "Ġtakes": 2924,
      "Ġdevast": 2925,
      "Ġcrown": 2926,
      "Ġapproach": 2927,
      "Ġapproached": 2928,
      "Ġbeasts": 2929,
      "bah": 2930,
      "iers": 2931,
      "nah": 2932,
      "Ġma": 2933,
      "Ġyouth": 2934,
      "Ġlep": 2935,
      "Ġgard": 2936,
      "Ġforward": 2937,
      "Ġsell": 2938,
      "venge": 2939,
      "Ġplaced": 2940,
      "fect": 2941,
      "oÊ¹ni": 2942,
      "Ġgreatly": 2943,
      "Ġreported": 2944,
      "Ġclouds": 2945,
      "ĠSheÊ¹c": 2946,
      "Ġprecious": 2947,
      "Ġwalls": 2948,
      "Ġhumili": 2949,
      "Ġmessage": 2950,
      "Ġrespect": 2951,
      "Ġwidow": 2952,
      "Ġrulers": 2953,
      "Ġclothed": 2954,
      "ĠHoly": 2955,
      "ĠGalÊ¹i": 2956,
      "Ġindeed": 2957,
      "ĠSheÊ¹chem": 2958,
      "cl": 2959,
      "Ġve": 2960,
      "Ġthorn": 2961,
      "Ġthrew": 2962,
      "ĠSeÊ¹": 2963,
      "Ġseem": 2964,
      "ĠWhere": 2965,
      "Ġbuy": 2966,
      "Ġ26": 2967,
      "Ġrob": 2968,
      "Ġaccomp": 2969,
      "Ġcrushed": 2970,
      "Ġoppos": 2971,
      "Ġinstruct": 2972,
      "Ġdesert": 2973,
      "Ġsearch": 2974,
      "Ġattendant": 2975,
      "Ġprofan": 2976,
      "Ġelse": 2977,
      "Get": 2978,
      "bimÊ¹e": 2979,
      "fort": 2980,
      "nag": 2981,
      "son": 2982,
      "ĠJah": 2983,
      "lend": 2984,
      "ality": 2985,
      "ĠHave": 2986,
      "Ġwhite": 2987,
      "ĠMaÊ¹": 2988,
      "Ġdoors": 2989,
      "Ġbrings": 2990,
      "ĠPe": 2991,
      "ighty": 2992,
      "laam": 2993,
      "ĠRaÊ¹m": 2994,
      "Ġremind": 2995,
      "Ġrule": 2996,
      "Ê¹ner": 2997,
      "Ġquar": 2998,
      "Ġdevour": 2999,
      "liÊ¹sha": 3000,
      "Ġcourse": 3001,
      "Ġbuilding": 3002,
      "Ġpleasure": 3003,
      "Ġgifts": 3004,
      "Ġsoldiers": 3005,
      "Ġappearance": 3006,
      "Ġfirmly": 3007,
      "nagog": 3008,
      "May": 3009,
      "Son": 3010,
      "bered": 3011,
      "face": 3012,
      "asing": 3013,
      "otten": 3014,
      "ĠTy": 3015,
      "Ġeag": 3016,
      "Ġsand": 3017,
      "run": 3018,
      "Ġneck": 3019,
      "Ġrepay": 3020,
      "ĠZeÊ¹": 3021,
      "Ġscrib": 3022,
      "ighing": 3023,
      "Ġtents": 3024,
      "Ġadvers": 3025,
      "Ġshown": 3026,
      "ĠShiÊ¹": 3027,
      "Ġremains": 3028,
      "ĠBaÊ¹laam": 3029,
      "Ġpleasing": 3030,
      "Ġ70": 3031,
      "Ġdonkeys": 3032,
      "Ġsynagog": 3033,
      "Ġcherubs": 3034,
      "Ġcompassion": 3035,
      "Ġsqu": 3036,
      "Ġcorn": 3037,
      "ĠIts": 3038,
      "Ġred": 3039,
      "ĠGive": 3040,
      "Ġcomfort": 3041,
      "estic": 3042,
      "aken": 3043,
      "eph": 3044,
      "Ġ16": 3045,
      "Ġserved": 3046,
      "fection": 3047,
      "Ġsucc": 3048,
      "ĠZed": 3049,
      "Ġscroll": 3050,
      "Ġplead": 3051,
      "Ġjudges": 3052,
      "Ġpassing": 3053,
      "Ġincre": 3054,
      "Ġbreath": 3055,
      "Ġflocks": 3056,
      "ĠAny": 3057,
      "Ġslaughtered": 3058,
      "Ġassigned": 3059,
      "Ġsuccess": 3060,
      "uct": 3061,
      "Ġtal": 3062,
      "Ġwound": 3063,
      "Ġhoney": 3064,
      "Ġmis": 3065,
      "Ġmine": 3066,
      "orÊ¹": 3067,
      "Ġeight": 3068,
      "Ġmean": 3069,
      "Ġaside": 3070,
      "ĠHiÊ¹": 3071,
      "Ġstup": 3072,
      "ĠPer": 3073,
      "Ġarrow": 3074,
      "Ġrage": 3075,
      "Ġsecurity": 3076,
      "Ġdraw": 3077,
      "Ġknew": 3078,
      "Ġunfaith": 3079,
      "Ġstupid": 3080,
      "cai": 3081,
      "iven": 3082,
      "ners": 3083,
      "par": 3084,
      "Ġtur": 3085,
      "Ġsou": 3086,
      "Ġmixed": 3087,
      "ative": 3088,
      "Ġdom": 3089,
      "Ê¹mon": 3090,
      "Ġnaked": 3091,
      "Ġlot": 3092,
      "Ġbeyond": 3093,
      "ĠâĢĶ": 3094,
      "owed": 3095,
      "ĠSar": 3096,
      "Ġsplend": 3097,
      "rupt": 3098,
      "Ġjour": 3099,
      "Ġherd": 3100,
      "Ġstrik": 3101,
      "Ġsanctified": 3102,
      "Ġthrown": 3103,
      "Ġjoyful": 3104,
      "Ġhuman": 3105,
      "Ġprostitution": 3106,
      "Ġstatutes": 3107,
      "Ġoccur": 3108,
      "Ġapostles": 3109,
      "Ġlifted": 3110,
      "Ġempty": 3111,
      "Ġinnocent": 3112,
      "af": 3113,
      "nai": 3114,
      "Ġhide": 3115,
      "Ġcam": 3116,
      "leavened": 3117,
      "Ġforget": 3118,
      "urch": 3119,
      "ĠDam": 3120,
      "Ġherself": 3121,
      "Ġnob": 3122,
      "Ġleg": 3123,
      "Ġeng": 3124,
      "Ġtrump": 3125,
      "Ġperse": 3126,
      "Ġdiscern": 3127,
      "Ġforeigner": 3128,
      "Ġwonder": 3129,
      "Ġprepare": 3130,
      "ounce": 3131,
      "Ġmourning": 3132,
      "Ġthousands": 3133,
      "ĠAÊ¹bram": 3134,
      "Ġmaj": 3135,
      "Ġjourney": 3136,
      "aff": 3137,
      "joy": 3138,
      "pl": 3139,
      "siÊ¹ah": 3140,
      "Ġtalk": 3141,
      "Ġfif": 3142,
      "Ġfought": 3143,
      "Ġmist": 3144,
      "ascus": 3145,
      "ĠAre": 3146,
      "Ġur": 3147,
      "ĠHa": 3148,
      "Ġstub": 3149,
      "aking": 3150,
      "ĠNever": 3151,
      "Ġwrote": 3152,
      "Ġjudicial": 3153,
      "These": 3154,
      "ĠAbÊ¹ner": 3155,
      "ĠBaÊ¹shan": 3156,
      "righteous": 3157,
      "Ġpillar": 3158,
      "Ġcomplete": 3159,
      "Ġdrive": 3160,
      "Ġgoats": 3161,
      "Ġsubject": 3162,
      "Ġrejected": 3163,
      "Ġmultip": 3164,
      "ikh": 3165,
      ".)": 3166,
      "Lord": 3167,
      "bbath": 3168,
      "cket": 3169,
      "ek": 3170,
      "has": 3171,
      "ian": 3172,
      "iving": 3173,
      "rate": 3174,
      "Ġbod": 3175,
      "Ġtomb": 3176,
      "Ġascend": 3177,
      "Ġsabbath": 3178,
      "Ġstep": 3179,
      "room": 3180,
      "Ġseized": 3181,
      "Ġamount": 3182,
      "Ġloc": 3183,
      "Ġtherefore": 3184,
      "Ġunrighteous": 3185,
      "Ġwrite": 3186,
      "Ġkeeps": 3187,
      "Ġwherever": 3188,
      "ivity": 3189,
      "ĠShimÊ¹e": 3190,
      "Ġpoles": 3191,
      "Ġsanctify": 3192,
      "Ġboast": 3193,
      "Ġcrowds": 3194,
      "Ġtrave": 3195,
      "Ġforgive": 3196,
      "Ġwool": 3197,
      "Ġglorious": 3198,
      "Ġregular": 3199,
      "Ġstumble": 3200,
      "Ġcontribution": 3201,
      "Ġtrouble": 3202,
      "ĠJeÊ¹hu": 3203,
      "Ġtowns": 3204,
      "ĠDamascus": 3205,
      "Ġpersec": 3206,
      "?*": 3207,
      "gain": 3208,
      "lay": 3209,
      "mighty": 3210,
      "zi": 3211,
      "Ġwin": 3212,
      "Ġsides": 3213,
      "Ġdrun": 3214,
      "Ġpu": 3215,
      "ames": 3216,
      "ĠMorÊ¹": 3217,
      "ĠLater": 3218,
      "rust": 3219,
      "ĠHere": 3220,
      "Ġshut": 3221,
      "Ġshad": 3222,
      "Ġflo": 3223,
      "Ġfeed": 3224,
      "Ġpreg": 3225,
      "ĠAlmighty": 3226,
      "Ġdisgr": 3227,
      "Ġinterp": 3228,
      "Ġdirector": 3229,
      "Ġscribes": 3230,
      "ĠMorÊ¹de": 3231,
      "After": 3232,
      "St": 3233,
      "bers": 3234,
      "eed": 3235,
      "itud": 3236,
      "Ġcra": 3237,
      "Ġpull": 3238,
      "Ġheal": 3239,
      "riage": 3240,
      "ĠHor": 3241,
      "Ġloves": 3242,
      "ĠPeÊ¹": 3243,
      "ĠPilate": 3244,
      "iege": 3245,
      "udden": 3246,
      "sol": 3247,
      "eÊ¹d": 3248,
      "Ġdisaster": 3249,
      "Ġtruly": 3250,
      "Ġends": 3251,
      "ĠShaÊ¹": 3252,
      "Ê¹non": 3253,
      "Ġquest": 3254,
      "ĠOnly": 3255,
      "ĠAlthough": 3256,
      "Ġinstead": 3257,
      "angu": 3258,
      "Ġthirst": 3259,
      "Ġmeasured": 3260,
      "rank": 3261,
      "ealous": 3262,
      "Ġthoughts": 3263,
      "ĠLeÊ¹vi": 3264,
      "Ġmelody": 3265,
      "Ġbecomes": 3266,
      "ĠIshÊ¹ma": 3267,
      "Ġgarden": 3268,
      "Ġbodies": 3269,
      "Are": 3270,
      "ee": 3271,
      "ys": 3272,
      "Ġyoke": 3273,
      "Ê¹s": 3274,
      "Ġpain": 3275,
      "Ġnet": 3276,
      "Ġlangu": 3277,
      "ĠTake": 3278,
      "sther": 3279,
      "irÊ¹i": 3280,
      "alÊ¹l": 3281,
      "Ġspear": 3282,
      "ĠListen": 3283,
      "ĠLaÊ¹b": 3284,
      "ĠEsther": 3285,
      "aÊ¹im": 3286,
      "Ġsocket": 3287,
      "Ġvow": 3288,
      "Ġriches": 3289,
      "Ġputting": 3290,
      "Ġ22": 3291,
      "Ġbetray": 3292,
      "Ġmonths": 3293,
      "aÊ¹nan": 3294,
      "Ġbroke": 3295,
      "Ġforgiven": 3296,
      "Ġconfid": 3297,
      "Ġcounted": 3298,
      "Ġcleans": 3299,
      "Ġpractices": 3300,
      "Ġconduct": 3301,
      "Ġbenef": 3302,
      "Ġsettlements": 3303,
      "Ġlabor": 3304,
      "Ġfifth": 3305,
      "Ġpregnant": 3306,
      "ĠLaÊ¹ban": 3307,
      "ax": 3308,
      "ror": 3309,
      "Ġterror": 3310,
      "Ġfre": 3311,
      "Ġfurther": 3312,
      "orÊ¹ah": 3313,
      "Ġped": 3314,
      "ĠIm": 3315,
      "iring": 3316,
      "ĠSat": 3317,
      "Ġitself": 3318,
      "Ġstir": 3319,
      "Ġbride": 3320,
      "Ġshort": 3321,
      "ĠNile": 3322,
      "Ġplag": 3323,
      "Ġplunder": 3324,
      "Ġourselves": 3325,
      "ĠZaÊ¹d": 3326,
      "Ġdecisions": 3327,
      "Ġspeaks": 3328,
      "Ġendures": 3329,
      "Ġsecure": 3330,
      "Ġdrinking": 3331,
      "Ġdepend": 3332,
      "aiah": 3333,
      "Ġpraised": 3334,
      "Ġgrass": 3335,
      "Ê¹pah": 3336,
      "Ġdefiled": 3337,
      "?âĢĻ+": 3338,
      "Ġguilty": 3339,
      "Ġdelight": 3340,
      "Ġadded": 3341,
      "imony": 3342,
      "Ġafflict": 3343,
      "Ġstraight": 3344,
      "Ġdiffe": 3345,
      "ĠTyre": 3346,
      "Ġsoul": 3347,
      "ĠZaÊ¹dok": 3348,
      "ares": 3349,
      "bush": 3350,
      "now": 3351,
      "Ġsack": 3352,
      "erous": 3353,
      "Ġcried": 3354,
      "enced": 3355,
      "Ê¹u": 3356,
      "Ġemb": 3357,
      "Ġrev": 3358,
      "ĠBo": 3359,
      "Ġstore": 3360,
      "Ġstart": 3361,
      "iles": 3362,
      "Ġsepar": 3363,
      "Ġdecept": 3364,
      "ĠIsaiah": 3365,
      "ruly": 3366,
      "Ġago": 3367,
      "akes": 3368,
      "Ġloaves": 3369,
      "ously": 3370,
      "laz": 3371,
      "phÊ¹ta": 3372,
      "Ġdise": 3373,
      "Ġswe": 3374,
      "Ġimmor": 3375,
      "Ġtramp": 3376,
      "Ġpraises": 3377,
      "Ġsurv": 3378,
      "Ġboat": 3379,
      "Ġkingdoms": 3380,
      "ĠNoah": 3381,
      "ĠZech": 3382,
      "Ġdirection": 3383,
      "Ġmoon": 3384,
      "Ġsurrounding": 3385,
      "Ġhungry": 3386,
      "Ġterrified": 3387,
      "Ġvalue": 3388,
      "Ġpedest": 3389,
      "ĠSatan": 3390,
      "ming": 3391,
      "most": 3392,
      "ndeed": 3393,
      "Ġbig": 3394,
      "essel": 3395,
      "Ġcust": 3396,
      "Ġhaught": 3397,
      "Ġformed": 3398,
      "keep": 3399,
      "ĠGid": 3400,
      "elt": 3401,
      "ĠHigh": 3402,
      "ĠCome": 3403,
      "Ġamaz": 3404,
      "Ġvessel": 3405,
      "Ġunless": 3406,
      "Ġpron": 3407,
      "Ġrather": 3408,
      "Ġserving": 3409,
      "Ġforest": 3410,
      "Ġremem": 3411,
      "Ġorders": 3412,
      "Ġimages": 3413,
      "Ġaltars": 3414,
      "Ġcaptives": 3415,
      "Ġglorify": 3416,
      "ĠSyrians": 3417,
      "ĠBethÊ¹le": 3418,
      "Ġbeside": 3419,
      "ĠFurthermore": 3420,
      "ĠHaÊ¹man": 3421,
      "Ġpanel": 3422,
      "Ġthreshing": 3423,
      "Ġsummoned": 3424,
      "Ġdevastated": 3425,
      "Ġwonderful": 3426,
      "Ġpedestals": 3427,
      "bling": 3428,
      "ration": 3429,
      "then": 3430,
      "Ġtax": 3431,
      "Ġbest": 3432,
      "Ġfac": 3433,
      "Ġcros": 3434,
      "arÊ¹m": 3435,
      "Ġlasting": 3436,
      "ĠJob": 3437,
      "ĠGate": 3438,
      "Ġasham": 3439,
      "Ġsees": 3440,
      "Ġseize": 3441,
      "ĠMary": 3442,
      "ĠMiz": 3443,
      "ĠPlease": 3444,
      "ĠPraise": 3445,
      "Ġriver": 3446,
      "ĠKeep": 3447,
      "Ġflood": 3448,
      "Ġdistance": 3449,
      "Ġleading": 3450,
      "Ġdeter": 3451,
      "Ġrespons": 3452,
      "Ġadvice": 3453,
      "Ġprostitute": 3454,
      "Ġshepherds": 3455,
      "Ġlampstand": 3456,
      "Ġabundant": 3457,
      "Ġbaptized": 3458,
      "ĠInstead": 3459,
      "Ġashamed": 3460,
      "come": 3461,
      "lam": 3462,
      "lain": 3463,
      "lun": 3464,
      "mit": 3465,
      "uing": 3466,
      "Ġden": 3467,
      "Ġpos": 3468,
      "ĠIndeed": 3469,
      "ĠGer": 3470,
      "urre": 3471,
      "Ġstars": 3472,
      "ĠCity": 3473,
      "ief": 3474,
      "Ġresurre": 3475,
      "Ġangry": 3476,
      "Ġfoundation": 3477,
      "Ġfields": 3478,
      "Ġinhabited": 3479,
      "Ġwitnesses": 3480,
      "Ġpurple": 3481,
      "Ġnumerous": 3482,
      "ogn": 3483,
      "theless": 3484,
      "Ġgreet": 3485,
      "ĠNaphÊ¹ta": 3486,
      "Ġpunishment": 3487,
      "Ġillust": 3488,
      "Ġlocust": 3489,
      "Ġshadow": 3490,
      "Ġfloor": 3491,
      "itude": 3492,
      "Ġcrossed": 3493,
      "Ġdeterm": 3494,
      "ba": 3495,
      "iet": 3496,
      "Ġawe": 3497,
      "onse": 3498,
      "Ġcircumcised": 3499,
      "Ê¹om": 3500,
      "Ġpor": 3501,
      "Ġinf": 3502,
      "Ġleng": 3503,
      "ĠJu": 3504,
      "Ġbeat": 3505,
      "ĠHan": 3506,
      "ĠHappy": 3507,
      "ceed": 3508,
      "Ġupro": 3509,
      "ĠCaÊ¹": 3510,
      "ĠOther": 3511,
      "Ġart": 3512,
      "Ġrepent": 3513,
      "Ġsworn": 3514,
      "Ġroof": 3515,
      "Ġschem": 3516,
      "Ġruins": 3517,
      "Ġcarved": 3518,
      "deÊ¹a": 3519,
      "Ġlistened": 3520,
      "Ġjudged": 3521,
      "ĠNext": 3522,
      "Ġrecogn": 3523,
      "ĠZebÊ¹u": 3524,
      "Ġcarefully": 3525,
      "Ġcountry": 3526,
      "Ġresident": 3527,
      "Ġfighting": 3528,
      "Ġhorror": 3529,
      "hoÊ¹ash": 3530,
      "Ġbeauty": 3531,
      "Ġviolence": 3532,
      "Ġstretched": 3533,
      "Ġastray": 3534,
      "Ġcedar": 3535,
      "cloth": 3536,
      "Ġtalents": 3537,
      "Ġcamels": 3538,
      "Ġdrunk": 3539,
      "At": 3540,
      "Ġmort": 3541,
      "Ġthread": 3542,
      "Ġgro": 3543,
      "ĠJezÊ¹": 3544,
      "ĠephÊ¹": 3545,
      "ĠSimÊ¹e": 3546,
      "ries": 3547,
      "Ġmeat": 3548,
      "ulter": 3549,
      "Ġovert": 3550,
      "Ġvic": 3551,
      "Ġshed": 3552,
      "ĠKoÊ¹": 3553,
      "Ġblue": 3554,
      "Ġunre": 3555,
      "Ġdecl": 3556,
      "peri": 3557,
      "Ġasking": 3558,
      "Ġbird": 3559,
      "Ġjoyfully": 3560,
      "ĠSee": 3561,
      "Ġtorn": 3562,
      "hoÊ¹ram": 3563,
      "Ġconsume": 3564,
      "Ġabundance": 3565,
      "Ġtears": 3566,
      "Ġhills": 3567,
      "Ġvirgin": 3568,
      "Ġdifferent": 3569,
      "Ġsackcloth": 3570,
      "ĠJezÊ¹re": 3571,
      "ĠephÊ¹od": 3572,
      "doÊ¹ni": 3573,
      "eg": 3574,
      "ja": 3575,
      "och": 3576,
      "Ġvenge": 3577,
      "Ġtro": 3578,
      "Ġwail": 3579,
      "inged": 3580,
      "Ġcrag": 3581,
      "Ġwilling": 3582,
      "Ġrede": 3583,
      "odÊ¹om": 3584,
      "ĠSho": 3585,
      "Ġweap": 3586,
      "ĠHitÊ¹t": 3587,
      "Ġstaff": 3588,
      "ĠMake": 3589,
      "ĠOur": 3590,
      "char": 3591,
      "aving": 3592,
      "Ġvie": 3593,
      "Ġ17": 3594,
      "empt": 3595,
      "Ġknowing": 3596,
      "Ġpride": 3597,
      "Ġscarle": 3598,
      "Ġadulter": 3599,
      "aped": 3600,
      "ĠShould": 3601,
      "iously": 3602,
      "Ġdivided": 3603,
      "Ġpractice": 3604,
      "Ġcorrupt": 3605,
      "Ġinsight": 3606,
      "Ġstopped": 3607,
      "Ê¹gal": 3608,
      "Ġruler": 3609,
      "Ġreproach": 3610,
      "Ġdevoted": 3611,
      "Ġpalm": 3612,
      "Ġgovernor": 3613,
      "Ġannihilate": 3614,
      "Ġrevealed": 3615,
      "ĠAnyone": 3616,
      "Ġsplendor": 3617,
      "Ġinterpret": 3618,
      "Ġquestion": 3619,
      "Ġlength": 3620,
      "Ġredeem": 3621,
      "Ġscarlet": 3622,
      "Give": 3623,
      "cher": 3624,
      "ges": 3625,
      "lak": 3626,
      "na": 3627,
      "Ġtried": 3628,
      "Ġwave": 3629,
      "inÊ¹e": 3630,
      "Ġsiege": 3631,
      "Ġcap": 3632,
      "Ġdining": 3633,
      "Ġpot": 3634,
      "otect": 3635,
      "ĠTim": 3636,
      "Ġforth": 3637,
      "ĠSodÊ¹om": 3638,
      "achel": 3639,
      "ilÊ¹": 3640,
      "Ġsprou": 3641,
      "ĠHeb": 3642,
      "Ġconne": 3643,
      "aved": 3644,
      "Ġripped": 3645,
      "ĠRachel": 3646,
      "ĠJesÊ¹se": 3647,
      "Ġrepurch": 3648,
      "Ġaccur": 3649,
      "ĠEÊ¹li": 3650,
      "Ġscatter": 3651,
      "ĠBefore": 3652,
      "Ġdiscipline": 3653,
      "Ġsurface": 3654,
      "Ġshowed": 3655,
      "Ġfully": 3656,
      "Ġmarriage": 3657,
      "Ġcurtain": 3658,
      "Ġsupport": 3659,
      "Ġsettled": 3660,
      "Ġwaiting": 3661,
      "Ġchieftains": 3662,
      "Ġconstantly": 3663,
      "Ġmilk": 3664,
      "Ġlearn": 3665,
      "Ġmetal": 3666,
      "Ġgroup": 3667,
      "ĠNevertheless": 3668,
      "Ġdisgrace": 3669,
      "Ġdependent": 3670,
      "Ġfacing": 3671,
      "Ġvengeance": 3672,
      "Ġtroops": 3673,
      "Tell": 3674,
      "cing": 3675,
      "dab": 3676,
      "ger": 3677,
      "moth": 3678,
      "oom": 3679,
      "ug": 3680,
      "Ġsad": 3681,
      "Ġsudden": 3682,
      "reet": 3683,
      "Ġbag": 3684,
      "Ġbars": 3685,
      "Ġfly": 3686,
      "Ġmoved": 3687,
      "edge": 3688,
      "Ê¹ron": 3689,
      "ĠAgain": 3690,
      "ĠTeÊ¹": 3691,
      "Ġweighing": 3692,
      "thah": 3693,
      "rog": 3694,
      "rosy": 3695,
      "tern": 3696,
      "ific": 3697,
      "ĠNaÊ¹": 3698,
      "Ġexult": 3699,
      "shi": 3700,
      "Ġrings": 3701,
      "Ġ21": 3702,
      "Ġaccus": 3703,
      "Ġwriting": 3704,
      "Ġkeeping": 3705,
      "Ġordered": 3706,
      "lisÊ¹tine": 3707,
      "liÊ¹a": 3708,
      "Ê¹lam": 3709,
      "Ġpresented": 3710,
      "Ġinstruments": 3711,
      "Ġcreature": 3712,
      "sheÊ¹ba": 3713,
      "ĠHerod": 3714,
      "Ġshouting": 3715,
      "ĠAÊ¹saph": 3716,
      "ission": 3717,
      "Ġjoined": 3718,
      "Ġtowers": 3719,
      "Ġdeceit": 3720,
      "Ġinclud": 3721,
      "Ġleprosy": 3722,
      "Ġpurif": 3723,
      "Ġbenefit": 3724,
      "ĠKoÊ¹hath": 3725,
      "Ġview": 3726,
      "?*+": 3727,
      "See": 3728,
      "Woe": 3729,
      "biÊ¹ah": 3730,
      "fall": 3731,
      "fts": 3732,
      "kind": 3733,
      "ma": 3734,
      "mand": 3735,
      "rings": 3736,
      "uish": 3737,
      "Ġarom": 3738,
      "Ġsour": 3739,
      "Ġfier": 3740,
      "ĠAÊ¹i": 3741,
      "Ġequ": 3742,
      "Ġmeal": 3743,
      "Ġwashed": 3744,
      "Ġmankind": 3745,
      "Ġspring": 3746,
      "ĠCan": 3747,
      "abÊ¹b": 3748,
      "chish": 3749,
      "ĠPro": 3750,
      "Ġconv": 3751,
      "Ġprove": 3752,
      "ĠKorÊ¹ah": 3753,
      "Ġsinners": 3754,
      "Ġarms": 3755,
      "Ġpreach": 3756,
      "Ê¹mah": 3757,
      "Ġbowl": 3758,
      "Ġchoose": 3759,
      "Ġdriven": 3760,
      "Ġworthy": 3761,
      "Ġestablish": 3762,
      "Ġtouched": 3763,
      "Ġcondem": 3764,
      "Ġsixth": 3765,
      "ĠAshÊ¹er": 3766,
      "Ġlowly": 3767,
      "Ġencamp": 3768,
      "Ġdemons": 3769,
      "Ġrebelled": 3770,
      "Ġstubborn": 3771,
      "Ġlanguage": 3772,
      "Have": 3773,
      "giving": 3774,
      "har": 3775,
      "haÊ¹nan": 3776,
      "naiÊ¹ah": 3777,
      "sper": 3778,
      "Ġz": 3779,
      "Ġerr": 3780,
      "Ġwra": 3781,
      "Ġwag": 3782,
      "Ġsow": 3783,
      "Ġbar": 3784,
      "Ġbright": 3785,
      "Ġfelt": 3786,
      "Ġdies": 3787,
      "any": 3788,
      "Ġheav": 3789,
      "ĠTe": 3790,
      "ĠJew": 3791,
      "Ġeither": 3792,
      "Ġanx": 3793,
      "ander": 3794,
      "aunt": 3795,
      "Ġdear": 3796,
      "aÊ¹iah": 3797,
      "Ġconqu": 3798,
      "Ġplain": 3799,
      "Ġprosper": 3800,
      "Ġrivers": 3801,
      "Ġrepair": 3802,
      "Ġenjoy": 3803,
      "Ġappoint": 3804,
      "arer": 3805,
      "Ġwomb": 3806,
      "ending": 3807,
      "ĠAÊ¹haz": 3808,
      "Ġstrang": 3809,
      "Ġuncircumcised": 3810,
      "Ġstronghold": 3811,
      "Ġwheat": 3812,
      "Ġforgotten": 3813,
      "Ġwatching": 3814,
      "Ġstumbling": 3815,
      "Ġshekel": 3816,
      "Ġvineyards": 3817,
      "Ġmourn": 3818,
      "Ġceleb": 3819,
      "work": 3820,
      "Ġveget": 3821,
      "Ġadversaries": 3822,
      "Ġunfaithful": 3823,
      "Ġlegal": 3824,
      "keepers": 3825,
      "All": 3826,
      "biÊ¹": 3827,
      "cript": 3828,
      "hon": 3829,
      "haps": 3830,
      "live": 3831,
      "Ġtaunt": 3832,
      "Ġolive": 3833,
      "inth": 3834,
      "Ġblaz": 3835,
      "Ġmater": 3836,
      "Ġmales": 3837,
      "Ġpest": 3838,
      "Ġlim": 3839,
      "ĠeÊ¹ph": 3840,
      "riÊ¹": 3841,
      "eless": 3842,
      "ilence": 3843,
      "Ġlift": 3844,
      "ĠMat": 3845,
      "ĠIsÊ¹sa": 3846,
      "termin": 3847,
      "Ġambush": 3848,
      "oked": 3849,
      "Ġage": 3850,
      "ĠNath": 3851,
      "Ġextermin": 3852,
      "Ê¹ai": 3853,
      "Ġflow": 3854,
      "ĠSheikh": 3855,
      "ressed": 3856,
      "Ê¹ni": 3857,
      "Ġstreets": 3858,
      "Ġtribul": 3859,
      "Ġlistening": 3860,
      "ĠBaÊ¹lak": 3861,
      "Ġharsh": 3862,
      "Ġteeth": 3863,
      "Ġgrown": 3864,
      "Ġpurp": 3865,
      "uÊ¹el": 3866,
      "Ġstrengthen": 3867,
      "Ġpiece": 3868,
      "Ê¹shon": 3869,
      "Ġannihil": 3870,
      "Ġinquire": 3871,
      "ĠRemember": 3872,
      "ĠCaes": 3873,
      "Ġsynagogue": 3874,
      "Ġsteps": 3875,
      "Ġdetermined": 3876,
      "Ġaroma": 3877,
      "ĠeÊ¹phah": 3878,
      "ĠNathan": 3879,
      "Hear": 3880,
      "do": 3881,
      "diÊ¹ah": 3882,
      "fum": 3883,
      "Ġhund": 3884,
      "Ġfing": 3885,
      "Ġfram": 3886,
      "Ġfury": 3887,
      "atch": 3888,
      "Ġdrag": 3889,
      "Ġlions": 3890,
      "Ġheat": 3891,
      "Ġheight": 3892,
      "Ġhealed": 3893,
      "Ġisl": 3894,
      "Ġreed": 3895,
      "eturn": 3896,
      "Ġwast": 3897,
      "Ġlost": 3898,
      "Ġload": 3899,
      "ĠNaz": 3900,
      "ĠNaÊ¹b": 3901,
      "Ġplot": 3902,
      "Ġserp": 3903,
      "Ġarrog": 3904,
      "phan": 3905,
      "Ġunleavened": 3906,
      "Ġacross": 3907,
      "Ġspend": 3908,
      "Ê¹eb": 3909,
      "Ġdesires": 3910,
      "Ġgoods": 3911,
      "Ġspiritual": 3912,
      "Ê¹bon": 3913,
      "Ġperfect": 3914,
      "Ġgolden": 3915,
      "Ġburden": 3916,
      "ĠBaÊ¹a": 3917,
      "Ġaffection": 3918,
      "Ġconsp": 3919,
      "ĠUzÊ¹": 3920,
      "Ġ60": 3921,
      "Ġdivision": 3922,
      "Ġobser": 3923,
      "Ġfruitage": 3924,
      "Ġcreated": 3925,
      "Ġreceives": 3926,
      "peak": 3927,
      "Ġescaped": 3928,
      "Ġrefuse": 3929,
      "Ġtreasures": 3930,
      "Ġfriends": 3931,
      "Ġfulfill": 3932,
      "Ġindignation": 3933,
      "Ġstreams": 3934,
      "Ġgrief": 3935,
      "Ġdrove": 3936,
      "Ġproperty": 3937,
      "ĠGidÊ¹e": 3938,
      "Ġporch": 3939,
      "Ġartic": 3940,
      "Ġerrors": 3941,
      "Ġhundred": 3942,
      "maiÊ¹ah": 3943,
      "pr": 3944,
      "unt": 3945,
      "wh": 3946,
      "Ġcave": 3947,
      "Ġdou": 3948,
      "Ġinj": 3949,
      "ĠJames": 3950,
      "ĠTest": 3951,
      "Ġkingship": 3952,
      "avior": 3953,
      "ĠZoÊ¹": 3954,
      "Ġletter": 3955,
      "Ġflowing": 3956,
      "Ġperfum": 3957,
      "ĠâĢľâĢĺâĢľ": 3958,
      "Ġ42": 3959,
      "Ġalongside": 3960,
      "pens": 3961,
      "Ġharp": 3962,
      "Ġpraying": 3963,
      "Ġconcub": 3964,
      "Ġexpect": 3965,
      "Ġmeasures": 3966,
      "aÊ¹dad": 3967,
      ".âĢĿâĢĻ+": 3968,
      "Ġcovering": 3969,
      "Ġwait": 3970,
      "Ġsubd": 3971,
      "Ġlamps": 3972,
      "Ġconsumed": 3973,
      "Ġattendants": 3974,
      "ĠEveryone": 3975,
      "Ġafflicted": 3976,
      "Ġtremble": 3977,
      "Ġstorm": 3978,
      "ĠSarah": 3979,
      "Ġdisease": 3980,
      "Ġresurrection": 3981,
      "Ġadultery": 3982,
      "Ġmaterial": 3983,
      "On": 3984,
      "Sh": 3985,
      "cess": 3986,
      "maÊ¹": 3987,
      "ta": 3988,
      "val": 3989,
      "Ġori": 3990,
      "orts": 3991,
      "Ġcro": 3992,
      "Ġdue": 3993,
      "Ġdrew": 3994,
      "ĠJebÊ¹u": 3995,
      "Ġrelease": 3996,
      "Ġweight": 3997,
      "Ġmemb": 3998,
      "ĠMeÊ¹": 3999,
      "usion": 4000,
      "ĠCy": 4001,
      "ĠChe": 4002,
      "ĠLot": 4003,
      "aÊ¹al": 4004,
      "ĠOÊ¹b": 4005,
      "resh": 4006,
      "aker": 4007,
      "Ġjealous": 4008,
      "ĠNeÊ¹b": 4009,
      "Ġvill": 4010,
      "Ġchange": 4011,
      "Ġprotect": 4012,
      "Ġring": 4013,
      "Ġtreacher": 4014,
      "ossom": 4015,
      "ĠUz": 4016,
      "Ġleader": 4017,
      "Ġfinish": 4018,
      "ĠGilÊ¹gal": 4019,
      "Ġglorified": 4020,
      "Ġregarding": 4021,
      "Ġthanksgiving": 4022,
      "Ġcompany": 4023,
      "ĠBeÊ¹er": 4024,
      "Ġprevail": 4025,
      "ĠShiÊ¹l": 4026,
      "Ġarrows": 4027,
      "Ġmultiply": 4028,
      "Ġpronounce": 4029,
      "Ġpestilence": 4030,
      "bs": 4031,
      "Ġhired": 4032,
      "Ġtomor": 4033,
      "Ġpar": 4034,
      "Ġlau": 4035,
      "asphe": 4036,
      "lem": 4037,
      "ĠTw": 4038,
      "Ġreap": 4039,
      "ĠSal": 4040,
      "ĠGath": 4041,
      "ĠGree": 4042,
      "ĠHesh": 4043,
      "tha": 4044,
      "Ġseat": 4045,
      "ĠCarÊ¹m": 4046,
      "Ġsayings": 4047,
      "Ġshine": 4048,
      "Ġblossom": 4049,
      "Ġblasphe": 4050,
      "Ġprice": 4051,
      "Ġ28": 4052,
      "Ġremnant": 4053,
      "Ġdesign": 4054,
      "ault": 4055,
      "ĠUntil": 4056,
      "Ġforeigners": 4057,
      "Ġwanted": 4058,
      "Ġsingle": 4059,
      "Ġsingers": 4060,
      "Ġofficial": 4061,
      "ĠSiÊ¹nai": 4062,
      "Ġallowed": 4063,
      "Ġtrying": 4064,
      "Ġexecute": 4065,
      "ĠSeÊ¹ir": 4066,
      "Ġreminders": 4067,
      "Ġcorner": 4068,
      "Ġaffliction": 4069,
      "Ġrevol": 4070,
      "ĠMizÊ¹pah": 4071,
      "Ġweapons": 4072,
      "ĠTestimony": 4073,
      "Ġtomorrow": 4074,
      ":*": 4075,
      "Al": 4076,
      "go": 4077,
      "ials": 4078,
      "rite": 4079,
      "Ġtaught": 4080,
      "Ġwish": 4081,
      "inate": 4082,
      "Ġfrag": 4083,
      "Ġmer": 4084,
      "Ġmention": 4085,
      "Ġdread": 4086,
      "Ġpick": 4087,
      "Ġinsp": 4088,
      "hood": 4089,
      "Ġnur": 4090,
      "ĠIth": 4091,
      "ĠJaÊ¹b": 4092,
      "ases": 4093,
      "ime": 4094,
      "Ġhail": 4095,
      "Ġreach": 4096,
      "Ġwear": 4097,
      "elf": 4098,
      "adÊ¹d": 4099,
      "Ġste": 4100,
      "Ġseas": 4101,
      "ĠMal": 4102,
      "Ġsprink": 4103,
      "ively": 4104,
      "Ġvol": 4105,
      "Ġfatherless": 4106,
      "urely": 4107,
      "ribe": 4108,
      "Ġafterward": 4109,
      "Ġworkers": 4110,
      "Ġscor": 4111,
      "sidered": 4112,
      "Ġstringed": 4113,
      "Ġcaptive": 4114,
      "Ġfinds": 4115,
      "Ġpleased": 4116,
      "Ġtrad": 4117,
      "Ġcareful": 4118,
      "Ġprovide": 4119,
      "ĠSamson": 4120,
      "Ġdefile": 4121,
      ".âĢĿâĢĻâĢĿ+": 4122,
      "Ġcloths": 4123,
      "Ġbearing": 4124,
      "Ġofficer": 4125,
      "Ġrooms": 4126,
      "Ġrebellious": 4127,
      "Ġdiff": 4128,
      "Ġtransgressions": 4129,
      "Ġfuture": 4130,
      "Ġfulfilled": 4131,
      "Ġsorts": 4132,
      "guard": 4133,
      "Ġexamine": 4134,
      "Ġquarre": 4135,
      "Ġstriking": 4136,
      "Ġremembered": 4137,
      "Ġposition": 4138,
      "Ġinterpretation": 4139,
      "Ġpurpose": 4140,
      "Ġframes": 4141,
      "Ġorigin": 4142,
      "ĠHeshÊ¹bon": 4143,
      "don": 4144,
      "ura": 4145,
      "vil": 4146,
      "Ġwages": 4147,
      "Ġsense": 4148,
      "Ġbought": 4149,
      "oned": 4150,
      "Ġcre": 4151,
      "Ê¹ja": 4152,
      "iding": 4153,
      "ĠTell": 4154,
      "irac": 4155,
      "ĠSome": 4156,
      "raud": 4157,
      "Ġashes": 4158,
      "thy": 4159,
      "thar": 4160,
      "Ġseal": 4161,
      "Ġseated": 4162,
      "ĠWoe": 4163,
      "Ġintere": 4164,
      "Ġplay": 4165,
      "Ġoverla": 4166,
      "Ġchanged": 4167,
      "Ġexerc": 4168,
      "ĠKirÊ¹i": 4169,
      "ĠJesh": 4170,
      "Ġ27": 4171,
      "Ġresult": 4172,
      "Ġcommanding": 4173,
      "Ġcontain": 4174,
      "Ġgloom": 4175,
      "Ġgrapes": 4176,
      "Ġrestored": 4177,
      "Ġtelling": 4178,
      "Ġfalls": 4179,
      "overed": 4180,
      "Ġcubit": 4181,
      "ĠUn": 4182,
      "Ġmarry": 4183,
      "Ġprovince": 4184,
      "Ġofficers": 4185,
      "Ġtablets": 4186,
      "Ġmultitude": 4187,
      "Ġplanted": 4188,
      "Ġbecoming": 4189,
      "Ġcourageous": 4190,
      "ĠRaÊ¹mah": 4191,
      "Ġimmorality": 4192,
      "Ġhaughty": 4193,
      "ĠCaÊ¹leb": 4194,
      "Ġmortal": 4195,
      "Ġincluding": 4196,
      "Ġheavy": 4197,
      "Ġannihilated": 4198,
      "Ġvolunt": 4199,
      "Ġinterest": 4200,
      "),": 4201,
      "lies": 4202,
      "nam": 4203,
      "roth": 4204,
      "rated": 4205,
      "Ġedge": 4206,
      "Ġtast": 4207,
      "int": 4208,
      "insp": 4209,
      "reth": 4210,
      "Ġhated": 4211,
      "Ġhang": 4212,
      "Ġbarle": 4213,
      "Ġmark": 4214,
      "athe": 4215,
      "itary": 4216,
      "onest": 4217,
      "Ġdut": 4218,
      "Ġthick": 4219,
      "ances": 4220,
      "Ġgaz": 4221,
      "Ġfors": 4222,
      "aches": 4223,
      "ĠGe": 4224,
      "Ġstation": 4225,
      "Ġstate": 4226,
      "thi": 4227,
      "Ġseason": 4228,
      "ĠMi": 4229,
      "Ġmanif": 4230,
      "Ġspl": 4231,
      "ift": 4232,
      "ĠPers": 4233,
      "ulÊ¹lam": 4234,
      "seless": 4235,
      "Ġworshi": 4236,
      "Ġswall": 4237,
      "Ġroot": 4238,
      "Ġcalls": 4239,
      "Ġdecided": 4240,
      "ĠPhil": 4241,
      "Ê¹ti": 4242,
      "Ġscour": 4243,
      "Ġprophes": 4244,
      "Ġswords": 4245,
      "Ġhears": 4246,
      "Ġbury": 4247,
      "Ġlightning": 4248,
      "Ġchose": 4249,
      "Ġcaptivity": 4250,
      "Ġuncleanness": 4251,
      "Ġholding": 4252,
      "Ġhappy": 4253,
      "Ġslavery": 4254,
      "Ġdivisions": 4255,
      "Ġinstructed": 4256,
      "Ġpati": 4257,
      "Ġofficials": 4258,
      "Ġtouch": 4259,
      "Ġsecretary": 4260,
      "ĠSiÊ¹hon": 4261,
      "Ġloudly": 4262,
      "Ġgranted": 4263,
      "Ġhumiliated": 4264,
      "Ġthorns": 4265,
      "Ġopposite": 4266,
      "Ġsquare": 4267,
      "Ġnobles": 4268,
      "Ġunrighteousness": 4269,
      "Ġtraveled": 4270,
      "Ġcrafts": 4271,
      "Ġsuddenly": 4272,
      "Ġvegetation": 4273,
      "Ġmerch": 4274,
      "Ġoverlaid": 4275,
      "inspiring": 4276,
      "Ġbarley": 4277,
      "Ġmanifest": 4278,
      "Bring": 4279,
      "biÊ¹a": 4280,
      "ked": 4281,
      "loÊ¹": 4282,
      "night": 4283,
      "ĠQ": 4284,
      "Ġwants": 4285,
      "inces": 4286,
      "Ġhom": 4287,
      "Ġfurn": 4288,
      "Ġmom": 4289,
      "atives": 4290,
      "Ġcord": 4291,
      "Ġdried": 4292,
      "rict": 4293,
      "Ġdew": 4294,
      "icult": 4295,
      "Ġsprings": 4296,
      "Ġshar": 4297,
      "ĠDiÊ¹": 4298,
      "Ġjar": 4299,
      "ĠPaÊ¹": 4300,
      "Ġconsidered": 4301,
      "pping": 4302,
      "Ġshoulder": 4303,
      "Ġexh": 4304,
      "Ġexch": 4305,
      "Ġexting": 4306,
      "Ġgreatest": 4307,
      "Ġgoodness": 4308,
      "Ġarmed": 4309,
      "Ġcontempt": 4310,
      "Ġperman": 4311,
      "Ġprey": 4312,
      "ultiv": 4313,
      "Ê¹li": 4314,
      "Ġbelonged": 4315,
      "Ġexpress": 4316,
      "Ġmarried": 4317,
      "Ġcongregations": 4318,
      "ĠBenÊ¹ja": 4319,
      "Ġrejoiced": 4320,
      "Ġpursue": 4321,
      "Ġdispers": 4322,
      "Ġlacking": 4323,
      "Ġships": 4324,
      "Ġseems": 4325,
      "Ġpulled": 4326,
      "Ġdifficult": 4327,
      "Ġmoment": 4328,
      "!*": 4329,
      "Speak": 4330,
      "bas": 4331,
      "hor": 4332,
      "hand": 4333,
      "use": 4334,
      "yp": 4335,
      "Ġself": 4336,
      "Ġfaced": 4337,
      "Ġmove": 4338,
      "Ġcultiv": 4339,
      "uting": 4340,
      "Ġiss": 4341,
      "Ġetern": 4342,
      "stem": 4343,
      "rial": 4344,
      "Ġasleep": 4345,
      "ĠHil": 4346,
      "ĠHuÊ¹": 4347,
      "Ġstick": 4348,
      "tham": 4349,
      "Ġdemand": 4350,
      "ĠLaÊ¹": 4351,
      "Ġshake": 4352,
      "Ġagree": 4353,
      "Ġdisapp": 4354,
      "Ġcoat": 4355,
      "Ġburial": 4356,
      "Ġswar": 4357,
      "Ġenv": 4358,
      "Ġeats": 4359,
      "Ġentrust": 4360,
      "Ġobedi": 4361,
      "Ġbelt": 4362,
      "Ġperished": 4363,
      "Ġ44": 4364,
      "Ġpresum": 4365,
      "Ġ32": 4366,
      "ĠWhose": 4367,
      "Ġparts": 4368,
      "Ê¹di": 4369,
      "Ġcrying": 4370,
      "Ġcleanse": 4371,
      "Ġcauses": 4372,
      "Ġcorre": 4373,
      "cient": 4374,
      "Ġsystem": 4375,
      "Ġaccepted": 4376,
      "Ġbesides": 4377,
      "ĠSiÊ¹don": 4378,
      "ĠLeÊ¹ah": 4379,
      "Ġthousand": 4380,
      "Ġtrembling": 4381,
      "Ġtower": 4382,
      "Ġindignant": 4383,
      "ephÊ¹a": 4384,
      "Ġeighth": 4385,
      "ĠHiÊ¹ram": 4386,
      "Ġplague": 4387,
      "Ġfiery": 4388,
      "Ġtribulation": 4389,
      "ĠShiÊ¹loh": 4390,
      "ĠPhilip": 4391,
      "by": 4392,
      "groom": 4393,
      "kes": 4394,
      "lig": 4395,
      "mal": 4396,
      "niÊ¹": 4397,
      "pi": 4398,
      "uous": 4399,
      "inary": 4400,
      "Ġsen": 4401,
      "Ġhot": 4402,
      "Ġbare": 4403,
      "Ġfright": 4404,
      "Ġcircumc": 4405,
      "Ġdrank": 4406,
      "Ê¹re": 4407,
      "Ġninth": 4408,
      "ĠJa": 4409,
      "lect": 4410,
      "ident": 4411,
      "ĠSan": 4412,
      "ĠSince": 4413,
      "ĠSavior": 4414,
      "Ġwearing": 4415,
      "ĠGu": 4416,
      "urance": 4417,
      "Ġmere": 4418,
      "Ġsafe": 4419,
      "rol": 4420,
      "Ġcomfor": 4421,
      "ĠFestival": 4422,
      "ĠEn": 4423,
      "ĠNaÊ¹a": 4424,
      "Ġvisions": 4425,
      "Ġearn": 4426,
      "Ġblow": 4427,
      "Ġunable": 4428,
      "ĠJudas": 4429,
      "Ġropes": 4430,
      "Ġworking": 4431,
      "Ġscorn": 4432,
      "Ġturns": 4433,
      "Ġturning": 4434,
      "Ġgrave": 4435,
      "ĠAbÊ¹i": 4436,
      "Ġ43": 4437,
      "Ġrestore": 4438,
      "ĠShuÊ¹": 4439,
      "Ġquiet": 4440,
      "Ġdistrict": 4441,
      "Ġdepth": 4442,
      "Ġharmon": 4443,
      "Ġolder": 4444,
      "Ġsurre": 4445,
      "Ġshowing": 4446,
      "Ġbelonging": 4447,
      "Ġgatekeepers": 4448,
      "Ġleaders": 4449,
      "Ġrelatives": 4450,
      "Ġsky": 4451,
      "Ġmeasuring": 4452,
      "Ġcursed": 4453,
      "Ġassembled": 4454,
      "Ġresponse": 4455,
      "ĠAnÊ¹a": 4456,
      ".âĢĿâĢĻâĢĿ": 4457,
      "Ġextrem": 4458,
      "Ġextended": 4459,
      "Ġadvis": 4460,
      "sheth": 4461,
      "Ġutter": 4462,
      "Ġstatute": 4463,
      "However": 4464,
      "Ġtreasure": 4465,
      "Ġmessenger": 4466,
      "Ġdevotion": 4467,
      "Ġpaths": 4468,
      "Ġinvited": 4469,
      "ĠDevil": 4470,
      "Ġridic": 4471,
      "urious": 4472,
      "ĠMiÊ¹ch": 4473,
      "ĠMiÊ¹cah": 4474,
      "Ġconfidence": 4475,
      "Ġsweet": 4476,
      "Ġsurviv": 4477,
      "Ġillustration": 4478,
      "ĠOtherwise": 4479,
      "Ġdeclaring": 4480,
      "perienced": 4481,
      "Ġconnection": 4482,
      "ĠOÊ¹bed": 4483,
      "ĠJeshÊ¹u": 4484,
      "Ġdispersed": 4485,
      "gran": 4486,
      "mi": 4487,
      "Ġpome": 4488,
      "Ġpity": 4489,
      "Ġthunder": 4490,
      "Ġbears": 4491,
      "ĠTar": 4492,
      "Ġforced": 4493,
      "ĠSay": 4494,
      "Ġwel": 4495,
      "Ġwept": 4496,
      "ĠGed": 4497,
      "ĠGet": 4498,
      "ursed": 4499,
      "ĠHim": 4500,
      "Ġupper": 4501,
      "ushes": 4502,
      "Ġmanner": 4503,
      "ably": 4504,
      "Ġvain": 4505,
      "Ġprover": 4506,
      "Ġexact": 4507,
      "Ġsuc": 4508,
      "Ġdisob": 4509,
      "oÊ¹pi": 4510,
      "ĠThrough": 4511,
      "ĠThough": 4512,
      "Ġletters": 4513,
      "Ġdecision": 4514,
      "Ġworker": 4515,
      "ĠSheÊ¹ba": 4516,
      "Ġfeast": 4517,
      "Ġyounger": 4518,
      "Ġ45": 4519,
      "Ġdistur": 4520,
      "Ġbowls": 4521,
      "Ġgetting": 4522,
      "Ġexposed": 4523,
      "Ġrelated": 4524,
      "Ġsupplic": 4525,
      "Ġcausing": 4526,
      "Ġprovinces": 4527,
      "!âĢĻ+": 4528,
      "Ġresiding": 4529,
      "Ġdrawn": 4530,
      "Ġrunning": 4531,
      "Ġclothe": 4532,
      "Ġhurled": 4533,
      "Ġbasket": 4534,
      "Ġprophesying": 4535,
      "Ġmilitary": 4536,
      "Ġpreviously": 4537,
      "Ġbanqu": 4538,
      "Ġaccompan": 4539,
      "Ġmajestic": 4540,
      "place": 4541,
      "Ġthirsty": 4542,
      "Ġcustom": 4543,
      "Ġamazed": 4544,
      "Ġlocusts": 4545,
      "Ġgroan": 4546,
      "Ġflying": 4547,
      "Ġperfumed": 4548,
      "Ġpomegran": 4549,
      "Every": 4550,
      "awn": 4551,
      "biÊ¹jah": 4552,
      "cy": 4553,
      "cent": 4554,
      "kÊ¹ah": 4555,
      "light": 4556,
      "mar": 4557,
      "post": 4558,
      "ris": 4559,
      "uished": 4560,
      "za": 4561,
      "zor": 4562,
      "Ġign": 4563,
      "Ġoften": 4564,
      "Ġmock": 4565,
      "orough": 4566,
      "Ġpaid": 4567,
      "Ġless": 4568,
      "ashed": 4569,
      "Ġeaster": 4570,
      "ĠSu": 4571,
      "ĠGoÊ¹": 4572,
      "ĠBel": 4573,
      "ilÊ¹e": 4574,
      "Ġdeed": 4575,
      "ĠEzÊ¹": 4576,
      "Ġshaken": 4577,
      "ifying": 4578,
      "eÊ¹rus": 4579,
      "ĠRed": 4580,
      "Ġ200": 4581,
      "ips": 4582,
      "asses": 4583,
      "Ġobtain": 4584,
      "Ġoblig": 4585,
      "Ġadorn": 4586,
      "ĠShu": 4587,
      "Ġmightiness": 4588,
      "Ġdistant": 4589,
      "Ġnamely": 4590,
      "Ġpurch": 4591,
      "Ġ66": 4592,
      "Ġwheels": 4593,
      "Ġproduces": 4594,
      "Ġtouches": 4595,
      "bearer": 4596,
      "bekÊ¹ah": 4597,
      "Ġwrongdo": 4598,
      "Ġtreated": 4599,
      "Ġlearned": 4600,
      "Ġtrium": 4601,
      "Ġexecuted": 4602,
      "Ġhorsemen": 4603,
      "Ġprofane": 4604,
      "Ġincrease": 4605,
      "Ġsuccessful": 4606,
      "Ġdomestic": 4607,
      "Ġtrumpets": 4608,
      "Ġaccurate": 4609,
      "Ġwrapped": 4610,
      "Ġserpent": 4611,
      "Ġbanquet": 4612,
      "Ġeastern": 4613,
      "Listen": 4614,
      "Men": 4615,
      "co": 4616,
      "haÊ¹": 4617,
      "ived": 4618,
      "ny": 4619,
      "rity": 4620,
      "ture": 4621,
      "ule": 4622,
      "Ġtread": 4623,
      "Ġsown": 4624,
      "Ġbri": 4625,
      "Ġbra": 4626,
      "Ġcru": 4627,
      "Ġcoun": 4628,
      "Ê¹rah": 4629,
      "Ġpier": 4630,
      "Ġthorough": 4631,
      "lew": 4632,
      "lead": 4633,
      "Ġonto": 4634,
      "ĠJephÊ¹": 4635,
      "stru": 4636,
      "ĠHas": 4637,
      "ĠHam": 4638,
      "Ġancient": 4639,
      "oph": 4640,
      "esty": 4641,
      "ĠOver": 4642,
      "Ġsoil": 4643,
      "ĠNun": 4644,
      "Ġinteg": 4645,
      "Ġoverth": 4646,
      "Ġvows": 4647,
      "Ê¹az": 4648,
      "ĠKe": 4649,
      "Ġleaving": 4650,
      "Ġputs": 4651,
      "Ġpriv": 4652,
      "Ġforehead": 4653,
      "Ġsweep": 4654,
      "Ê¹ek": 4655,
      "phel": 4656,
      "Ġcommander": 4657,
      "Ġtwisted": 4658,
      "ortion": 4659,
      "Ġscript": 4660,
      "Ġfeared": 4661,
      "Ġretreat": 4662,
      "That": 4663,
      "Ġstandard": 4664,
      "Ġ41": 4665,
      "Ġendurance": 4666,
      "Ġresting": 4667,
      "Ġpreserve": 4668,
      "Ġ300": 4669,
      "ĠAmÊ¹non": 4670,
      "ĠLevite": 4671,
      "Ġfruits": 4672,
      "Ġpromin": 4673,
      "Ġcrush": 4674,
      "Ġobsc": 4675,
      "Ġsalt": 4676,
      "Ġdefend": 4677,
      "Ġdelay": 4678,
      "Ġobeyed": 4679,
      "Ġmatters": 4680,
      "Ġexalt": 4681,
      "Ġdespised": 4682,
      "Ġrebuilt": 4683,
      "Ġstretch": 4684,
      "Ġpalace": 4685,
      "Ġtransgression": 4686,
      "Ġmurm": 4687,
      "ĠGadÊ¹ites": 4688,
      "Ġinnermost": 4689,
      "Ġformation": 4690,
      "Ġperformed": 4691,
      "Ġfoolishness": 4692,
      "Ġeager": 4693,
      "Ġtrumpet": 4694,
      "Ġdiscernment": 4695,
      "Ġamounted": 4696,
      "ĠShaÊ¹phan": 4697,
      "Ġcleansing": 4698,
      "Ġbridegroom": 4699,
      "ĠBoÊ¹az": 4700,
      "ĠGerÊ¹shon": 4701,
      "Ġuproot": 4702,
      "Should": 4703,
      "Ġlaugh": 4704,
      "ĠCarÊ¹mel": 4705,
      "Ġsplit": 4706,
      "ĠPersia": 4707,
      "Ġfurnace": 4708,
      "Ġpresumpt": 4709,
      "malÊ¹ek": 4710,
      "Ġtriumph": 4711,
      "ĠJephÊ¹thah": 4712,
      "Ġintegrity": 4713,
      "By": 4714,
      "From": 4715,
      "Te": 4716,
      "gilÊ¹e": 4717,
      "low": 4718,
      "niÊ¹jah": 4719,
      "rites": 4720,
      "sites": 4721,
      "wood": 4722,
      "Ġwander": 4723,
      "ination": 4724,
      "rer": 4725,
      "Ġband": 4726,
      "ism": 4727,
      "issed": 4728,
      "ators": 4729,
      "Ġcu": 4730,
      "Ġcister": 4731,
      "Ġdir": 4732,
      "Ġdawn": 4733,
      "Ê¹an": 4734,
      "hom": 4735,
      "ĠTruly": 4736,
      "ameless": 4737,
      "Ġrele": 4738,
      "oday": 4739,
      "acia": 4740,
      "Ġweary": 4741,
      "ĠGeÊ¹": 4742,
      "eland": 4743,
      "Ġann": 4744,
      "Ġsevere": 4745,
      "Ġsongs": 4746,
      "ĠMany": 4747,
      "Ġoutc": 4748,
      "ĠLib": 4749,
      "ĠLamb": 4750,
      "rub": 4751,
      "Ġplan": 4752,
      "Ġplund": 4753,
      "Ġchamb": 4754,
      "cknow": 4755,
      "Ġshel": 4756,
      "oÊ¹ah": 4757,
      "Ġrobe": 4758,
      "Ġdecree": 4759,
      "ĠEgyptian": 4760,
      "Ġclay": 4761,
      "ĠEÊ¹lam": 4762,
      "aged": 4763,
      "fty": 4764,
      "Ġspirits": 4765,
      "Ġstands": 4766,
      "Ġshows": 4767,
      "ĠAmen": 4768,
      "Ġque": 4769,
      "Ġquant": 4770,
      "Ġdistrib": 4771,
      "Ġconsci": 4772,
      "ĠArÊ¹a": 4773,
      "Ġpossessions": 4774,
      "aÊ¹mar": 4775,
      "Ġpasture": 4776,
      "Ġfruitful": 4777,
      "ccording": 4778,
      "Ġcompleted": 4779,
      "raged": 4780,
      "Ġbelievers": 4781,
      "ĠJoÊ¹nah": 4782,
      "Ġpursuing": 4783,
      "Ġcompanions": 4784,
      "Ġwestern": 4785,
      "Ġaware": 4786,
      "worthy": 4787,
      "Ġperform": 4788,
      "Ġmagn": 4789,
      "Ġinstructions": 4790,
      "ĠImmediately": 4791,
      "Ġstoreh": 4792,
      "Ġdeception": 4793,
      "Ġresponsib": 4794,
      "ĠProphe": 4795,
      "Ġislands": 4796,
      "Ġpermanent": 4797,
      "ypoc": 4798,
      "Ġearnest": 4799,
      "Ġharmony": 4800,
      "Ġsucceed": 4801,
      "ĠEzÊ¹ra": 4802,
      "Ġprominent": 4803,
      "Teacher": 4804,
      "Ġcistern": 4805,
      "Ġchambers": 4806,
      "Did": 4807,
      "Yes": 4808,
      "just": 4809,
      "ler": 4810,
      "liness": 4811,
      "rarÊ¹i": 4812,
      "Ġacknow": 4813,
      "Ġwond": 4814,
      "inc": 4815,
      "Ġsits": 4816,
      "ouse": 4817,
      "reen": 4818,
      "Ġbind": 4819,
      "ery": 4820,
      "ays": 4821,
      "Ġforce": 4822,
      "stri": 4823,
      "amber": 4824,
      "ĠSing": 4825,
      "kets": 4826,
      "Ġsaf": 4827,
      "ĠHoÊ¹": 4828,
      "ĠHag": 4829,
      "ĠBet": 4830,
      "ĠBring": 4831,
      "Ġsteal": 4832,
      "Ġarea": 4833,
      "Ġcompens": 4834,
      "ople": 4835,
      "ĠDid": 4836,
      "ĠDuring": 4837,
      "ults": 4838,
      "Ġabound": 4839,
      "Ġvis": 4840,
      "Ġvast": 4841,
      "Ġchamber": 4842,
      "ighed": 4843,
      "Ġworse": 4844,
      "phÊ¹e": 4845,
      "Ġleaves": 4846,
      "Ġacacia": 4847,
      "Ġcol": 4848,
      "Ġtimbers": 4849,
      "Ê¹iah": 4850,
      "Ġowner": 4851,
      "rible": 4852,
      "Ġbelow": 4853,
      "ointing": 4854,
      "ĠShalÊ¹l": 4855,
      "Ġsacrificial": 4856,
      "Ġcontinually": 4857,
      "Ġinhabitant": 4858,
      "Ġwither": 4859,
      "Ġlawful": 4860,
      "aÊ¹nah": 4861,
      "Ġhelper": 4862,
      "Ġlords": 4863,
      "Ġcalf": 4864,
      "Ġhumbled": 4865,
      "Ġtravel": 4866,
      "Ê¹do": 4867,
      "aÊ¹desh": 4868,
      "Ê¹pa": 4869,
      "Ġdefraud": 4870,
      "Ġgathering": 4871,
      "Ġextend": 4872,
      "Ê¹shish": 4873,
      "ĠYet": 4874,
      "Ġministering": 4875,
      "estivals": 4876,
      "Ġtorture": 4877,
      "Ġwidth": 4878,
      "Ġrebuke": 4879,
      "Ġgovernors": 4880,
      "ĠBarÊ¹na": 4881,
      "Ġmurde": 4882,
      "Ġsuffering": 4883,
      "Ġbeneath": 4884,
      "respond": 4885,
      "Ġprofaned": 4886,
      "ĠZeÊ¹rah": 4887,
      "ĠPerhaps": 4888,
      "Ġoccurred": 4889,
      "Ġsprout": 4890,
      "Ġcondemn": 4891,
      "Ġcelebrate": 4892,
      "Ġfinger": 4893,
      "Ġarticles": 4894,
      "Ġhundreds": 4895,
      "Ġjealousy": 4896,
      "ĠHuÊ¹sh": 4897,
      "Ġqueen": 4898,
      "God": 4899,
      "bish": 4900,
      "baÊ¹al": 4901,
      "caiÊ¹ah": 4902,
      "fare": 4903,
      "kins": 4904,
      "miÊ¹ah": 4905,
      "reed": 4906,
      "Ġfault": 4907,
      "Ġfestivals": 4908,
      "ering": 4909,
      "Ġcirc": 4910,
      "eness": 4911,
      "Ê¹v": 4912,
      "Ê¹la": 4913,
      "Ê¹lon": 4914,
      "anwh": 4915,
      "Ġlose": 4916,
      "Ġlots": 4917,
      "set": 4918,
      "Ġrender": 4919,
      "Ġnotice": 4920,
      "Ġwithd": 4921,
      "rain": 4922,
      "ĠMac": 4923,
      "ĠMaker": 4924,
      "Ġdeb": 4925,
      "Ġdogs": 4926,
      "Ġspent": 4927,
      "ĠCush": 4928,
      "alled": 4929,
      "ards": 4930,
      "ardon": 4931,
      "Ġloaf": 4932,
      "Ġornam": 4933,
      "Ġherds": 4934,
      "ĠKeÊ¹": 4935,
      "Ġsuper": 4936,
      "Ġdism": 4937,
      "shaped": 4938,
      "Ġleast": 4939,
      "Ġris": 4940,
      "ĠRep": 4941,
      "Ê¹iz": 4942,
      "iper": 4943,
      "Ġroll": 4944,
      "aughter": 4945,
      "Ġarmor": 4946,
      "Ġens": 4947,
      "Ġthank": 4948,
      "Ġlooks": 4949,
      "Ġpermit": 4950,
      "Ġwarning": 4951,
      "Ġfoundations": 4952,
      "ĠDoes": 4953,
      "Ġacting": 4954,
      "ĠAfterward": 4955,
      "Ġteacher": 4956,
      "Ġcapture": 4957,
      "Ġevent": 4958,
      "Ġskill": 4959,
      "Ġskilled": 4960,
      "Ġhumans": 4961,
      "Ġdivor": 4962,
      "Ġprostrated": 4963,
      "Ġwoven": 4964,
      "Ê¹sha": 4965,
      "Whoever": 4966,
      "Ġcorrespond": 4967,
      "Ġaddition": 4968,
      "Ġtouching": 4969,
      "Ġwidows": 4970,
      "Ġsurrounded": 4971,
      "Ġsickness": 4972,
      "Ġknees": 4973,
      "Ġspeechless": 4974,
      "Ġprofit": 4975,
      "ĠHaÊ¹math": 4976,
      "Ġstraw": 4977,
      "Ġfutility": 4978,
      "Ġclearly": 4979,
      "Ġsandals": 4980,
      "Ġredu": 4981,
      "Ġturb": 4982,
      "Ġhealing": 4983,
      "Ġanxious": 4984,
      "ĠUzÊ¹zi": 4985,
      "Ġmembers": 4986,
      "Ġtreacherous": 4987,
      "Ġvoluntary": 4988,
      "Ġprophesied": 4989,
      "Ġdepths": 4990,
      "ĠTarÊ¹shish": 4991,
      "Ġaccompanied": 4992,
      "Ġoutcry": 4993,
      "Ġcompensation": 4994,
      "ĠShalÊ¹lum": 4995,
      "anwhile": 4996,
      "Amen": 4997,
      "Return": 4998,
      "haÊ¹dad": 4999,
      "ius": 5000,
      "nan": 5001,
      "noÊ¹ah": 5002,
      "pie": 5003,
      "rach": 5004,
      "tho": 5005,
      "whel": 5006,
      "zÊ¹e": 5007,
      "Ġav": 5008,
      "Ġsought": 5009,
      "Ġsize": 5010,
      "Ġhates": 5011,
      "ont": 5012,
      "orm": 5013,
      "orrow": 5014,
      "Ê¹h": 5015,
      "Ê¹uch": 5016,
      "Ġpress": 5017,
      "Ġheir": 5018,
      "aser": 5019,
      "lected": 5020,
      "ĠToÊ¹": 5021,
      "irst": 5022,
      "ĠScript": 5023,
      "thites": 5024,
      "Ġanointing": 5025,
      "âĢĻ?+": 5026,
      "iling": 5027,
      "ĠMer": 5028,
      "ĠWell": 5029,
      "ruÊ¹iah": 5030,
      "ĠEu": 5031,
      "ĠEsh": 5032,
      "ĠHear": 5033,
      "resent": 5034,
      "Ġabus": 5035,
      "Ġoverse": 5036,
      "Ġoverwhel": 5037,
      "Ġchains": 5038,
      "Ġnecess": 5039,
      "ĠKaÊ¹desh": 5040,
      "Ġblameless": 5041,
      "atever": 5042,
      "Ġrans": 5043,
      "ĠRephÊ¹a": 5044,
      "Ġdesir": 5045,
      "Ġheavenly": 5046,
      "Ġscales": 5047,
      "Ġscreen": 5048,
      "Ġobst": 5049,
      "Ġendure": 5050,
      "Ġsacrificing": 5051,
      "Ġ38": 5052,
      "Ġgodly": 5053,
      "Ġdisciple": 5054,
      "Ġdevi": 5055,
      "Ġprayed": 5056,
      "Ġpersu": 5057,
      "Ġleads": 5058,
      "Ġprince": 5059,
      "Ġrecord": 5060,
      "Ġtrap": 5061,
      "Ġapproval": 5062,
      "Ġsupply": 5063,
      "Ġbelieved": 5064,
      "sheÊ¹m": 5065,
      "cially": 5066,
      "Ġtongues": 5067,
      "Ġcompanion": 5068,
      "Ġgreed": 5069,
      "ĠBarÊ¹uch": 5070,
      "Ġoppressed": 5071,
      "Ġinquired": 5072,
      "Ġmagic": 5073,
      "Ġshields": 5074,
      "ĠRaÊ¹moth": 5075,
      "Ġmislead": 5076,
      "Ġseparated": 5077,
      "Ġtrampled": 5078,
      "Ġgreetings": 5079,
      "ĠHitÊ¹tites": 5080,
      "ĠHebrew": 5081,
      "Ġsource": 5082,
      "Ġblazed": 5083,
      "ĠCaesar": 5084,
      "Ġstationed": 5085,
      "ĠQue": 5086,
      "Ġexchange": 5087,
      "Ġsafeguard": 5088,
      "Ġproverb": 5089,
      "Ġexactly": 5090,
      "Ġcounsel": 5091,
      "Ġscripture": 5092,
      "Ġshelter": 5093,
      "Ġconscience": 5094,
      "Ġeventually": 5095,
      "Ġransom": 5096,
      "Cursed": 5097,
      "ex": 5098,
      "ffe": 5099,
      "gar": 5100,
      "gÊ¹eb": 5101,
      "hud": 5102,
      "hip": 5103,
      "pit": 5104,
      "ss": 5105,
      "shed": 5106,
      "te": 5107,
      "ware": 5108,
      "ze": 5109,
      "zites": 5110,
      "Ġtired": 5111,
      "Ġwage": 5112,
      "Ġwaves": 5113,
      "Ġbals": 5114,
      "Ġbathe": 5115,
      "Ġblew": 5116,
      "Ġtore": 5117,
      "ats": 5118,
      "onc": 5119,
      "ences": 5120,
      "Ê¹zar": 5121,
      "Ġpost": 5122,
      "Ġpoint": 5123,
      "Ġinflic": 5124,
      "Ġnail": 5125,
      "Ġlame": 5126,
      "seiÊ¹ah": 5127,
      "lek": 5128,
      "ĠTaÊ¹mar": 5129,
      "Ġham": 5130,
      "sted": 5131,
      "Ġweighed": 5132,
      "elve": 5133,
      "ĠHazÊ¹a": 5134,
      "Ġkid": 5135,
      "Ġkiss": 5136,
      "Ġanoint": 5137,
      "ĠMah": 5138,
      "estines": 5139,
      "Ġshattered": 5140,
      "ĠIsraelite": 5141,
      "ctive": 5142,
      "ĠDa": 5143,
      "nts": 5144,
      "ĠPut": 5145,
      "Ġintestines": 5146,
      "istry": 5147,
      "Ġplains": 5148,
      "Ġexiles": 5149,
      "ĠKish": 5150,
      "Ġblock": 5151,
      "Ġsuffe": 5152,
      "shulÊ¹lam": 5153,
      "Ġanymore": 5154,
      "Ġcost": 5155,
      "ĠRab": 5156,
      "Ġswift": 5157,
      "ĠZiÊ¹": 5158,
      "othy": 5159,
      "Ġflame": 5160,
      "Ġappeal": 5161,
      "Ġenters": 5162,
      "Ê¹be": 5163,
      "Ġruling": 5164,
      "Ġ46": 5165,
      "ĠWhich": 5166,
      "ĠSham": 5167,
      "Ġsacrificed": 5168,
      "Ġwickedly": 5169,
      "Ġbloodshed": 5170,
      "Ġ33": 5171,
      "Ġtribute": 5172,
      "Ġquite": 5173,
      "Ġactually": 5174,
      "Ġdeput": 5175,
      "ĠArÊ¹non": 5176,
      "Ġtemp": 5177,
      "Ġsmo": 5178,
      "Ġchoice": 5179,
      "ĠNegÊ¹eb": 5180,
      "Ġcalm": 5181,
      "Ġexplain": 5182,
      "ĠMeanwhile": 5183,
      "Ġextra": 5184,
      "Ġwaist": 5185,
      "Ġresidents": 5186,
      "Ġimposed": 5187,
      "Ġcourtyards": 5188,
      "Ġministers": 5189,
      "ĠJoÊ¹tham": 5190,
      "Ġwarrior": 5191,
      "hiÊ¹jah": 5192,
      "Ġsummer": 5193,
      "Ġdespise": 5194,
      "Ġrebuild": 5195,
      "Ġawake": 5196,
      "Ġsleeping": 5197,
      "Ġcedars": 5198,
      "Ġbreasts": 5199,
      "Ġbreastpie": 5200,
      "Ġcorners": 5201,
      "Ġwounded": 5202,
      "ĠHiÊ¹v": 5203,
      "Ġnobody": 5204,
      "Ġmistreat": 5205,
      "Ġsabbaths": 5206,
      "Ġstirred": 5207,
      "Ġvessels": 5208,
      "Ġschemes": 5209,
      "Ġunreason": 5210,
      "Ġcapit": 5211,
      "ĠTimothy": 5212,
      "Ġrepurchase": 5213,
      "Ġunfaithfulness": 5214,
      "riÊ¹us": 5215,
      "Ġwasteland": 5216,
      "ĠCyrus": 5217,
      "ĠNeÊ¹bat": 5218,
      "Ġblasphem": 5219,
      "Ġsprinkled": 5220,
      "Ġscourge": 5221,
      "Ġentrusted": 5222,
      "Ġutterly": 5223,
      "Ġobligation": 5224,
      "Ġobscene": 5225,
      "rubÊ¹ba": 5226,
      "Ġwonders": 5227,
      "bishÊ¹ai": 5228,
      "Ġdesirable": 5229,
      "ĠQueen": 5230,
      "Ġbalsam": 5231,
      "Ġsuffered": 5232,
      "Ġbreastpiece": 5233,
      "500": 5234,
      "Just": 5235,
      "Not": 5236,
      "Send": 5237,
      "ald": 5238,
      "eÊ¹a": 5239,
      "ipped": 5240,
      "kÊ¹ron": 5241,
      "lace": 5242,
      "oves": 5243,
      "sus": 5244,
      "tle": 5245,
      "where": 5246,
      "hearted": 5247,
      "rep": 5248,
      "Ġbase": 5249,
      "Ġcured": 5250,
      "Ġdug": 5251,
      "Ê¹ch": 5252,
      "hoÊ¹a": 5253,
      "Ġbend": 5254,
      "ĠAccording": 5255,
      "Ġmeant": 5256,
      "aded": 5257,
      "Ġsealed": 5258,
      "ĠMaÊ¹a": 5259,
      "ĠEkÊ¹ron": 5260,
      "ĠHezÊ¹": 5261,
      "iÊ¹el": 5262,
      "charge": 5263,
      "Ġlofty": 5264,
      "osing": 5265,
      "uls": 5266,
      "Ġripe": 5267,
      "Ġexamp": 5268,
      "ĠKeÊ¹d": 5269,
      "Ġdischarge": 5270,
      "oÊ¹mi": 5271,
      "Ġholiness": 5272,
      "ĠWhenever": 5273,
      "ĠThan": 5274,
      "ĠResc": 5275,
      "Ġ29": 5276,
      "ĠPhinÊ¹e": 5277,
      "arents": 5278,
      "ĠShem": 5279,
      "Ġglad": 5280,
      "izing": 5281,
      "Ê¹nan": 5282,
      "ĠAÊ¹m": 5283,
      "Ġhowever": 5284,
      "Ġburst": 5285,
      "Ġpool": 5286,
      "Ġmouths": 5287,
      "Ġpossible": 5288,
      "Ġlawless": 5289,
      "Ġfleshly": 5290,
      "Ġgeneal": 5291,
      "Ġhelpless": 5292,
      "Ġmarched": 5293,
      "Ġhumble": 5294,
      "Ê¹dod": 5295,
      "Ġguards": 5296,
      "Ġministry": 5297,
      "Ġbreaking": 5298,
      "eÊ¹ba": 5299,
      "Ġterrible": 5300,
      "Ġtreasuri": 5301,
      "ĠAshÊ¹dod": 5302,
      "Ġdreams": 5303,
      "Ġproclaimed": 5304,
      "Ġfigs": 5305,
      "Ġconcealed": 5306,
      "ĠMaÊ¹ch": 5307,
      "ĠPeople": 5308,
      "Ġeagle": 5309,
      "Ġstrikes": 5310,
      "Ġmajesty": 5311,
      "Ġascended": 5312,
      "Ġdeceptive": 5313,
      "Ġrecognize": 5314,
      "Ġovertake": 5315,
      "ĠShow": 5316,
      "ĠJaÊ¹besh": 5317,
      "Ġduties": 5318,
      "Ġissued": 5319,
      "ĠLaÊ¹chish": 5320,
      "Ġcorrect": 5321,
      "ĠGuard": 5322,
      "Ġdisobedi": 5323,
      "Ġsupplication": 5324,
      "Ġcups": 5325,
      "sheÊ¹mesh": 5326,
      "Ġextraord": 5327,
      "ĠRescue": 5328,
      "Ġgenealog": 5329,
      "Ġtreasuries": 5330,
      "Make": 5331,
      "Truly": 5332,
      "ding": 5333,
      "eks": 5334,
      "fru": 5335,
      "god": 5336,
      "kam": 5337,
      "ool": 5338,
      "rar": 5339,
      "some": 5340,
      "Ġes": 5341,
      "Ġround": 5342,
      "Ġtall": 5343,
      "hether": 5344,
      "Ġaven": 5345,
      "Ġhypoc": 5346,
      "Ġbond": 5347,
      "Ġfame": 5348,
      "Ġfatt": 5349,
      "Ġfrank": 5350,
      "Ġfurious": 5351,
      "Ġmain": 5352,
      "Ġmild": 5353,
      "itions": 5354,
      "Ġparents": 5355,
      "Ġinfor": 5356,
      "Ġlower": 5357,
      "Ġwipe": 5358,
      "Ġeas": 5359,
      "Ġrear": 5360,
      "ĠSis": 5361,
      "ĠSave": 5362,
      "acious": 5363,
      "ĠGaÊ¹": 5364,
      "essed": 5365,
      "Ġshining": 5366,
      "ĠDaÊ¹": 5367,
      "chin": 5368,
      "ĠPay": 5369,
      "ĠâĢĺâĢľ": 5370,
      "Ġoverf": 5371,
      "Ġproved": 5372,
      "Ġexc": 5373,
      "Ġblack": 5374,
      "Ġunp": 5375,
      "Ġhook": 5376,
      "Ġcovers": 5377,
      "Ġrepresent": 5378,
      "Ġspec": 5379,
      "Ġdesired": 5380,
      "Ġsetting": 5381,
      "Ġanguish": 5382,
      "Ġfirstfru": 5383,
      "Ġpreached": 5384,
      "Ġprevent": 5385,
      "Ġyoungest": 5386,
      "Ġended": 5387,
      "Ġslop": 5388,
      "Ġstreet": 5389,
      "ĠAÊ¹d": 5390,
      "azÊ¹zar": 5391,
      "Ê¹mi": 5392,
      "Ġpole": 5393,
      "Ġconsult": 5394,
      "Ġtender": 5395,
      "Ġkindly": 5396,
      "Ġnumbered": 5397,
      "Ġbold": 5398,
      "Ġobserved": 5399,
      "Ġapproved": 5400,
      "Ġdescended": 5401,
      "Ġcopy": 5402,
      "Ġproduced": 5403,
      "Ġrespond": 5404,
      "pecially": 5405,
      "morÊ¹rah": 5406,
      "Ġsatisfy": 5407,
      "Ġviolent": 5408,
      "Ġhunt": 5409,
      "Ġpursued": 5410,
      "Ġsearched": 5411,
      "Ġgreen": 5412,
      "Ġsnow": 5413,
      "Ġclosely": 5414,
      "Ġneighbors": 5415,
      "Ġmurder": 5416,
      "Ġrealized": 5417,
      "ĠPerÊ¹iz": 5418,
      "Ġengra": 5419,
      "Ġcleansed": 5420,
      "Ġwailing": 5421,
      "Ġpreaching": 5422,
      "Ġconcubine": 5423,
      "Ġcrooked": 5424,
      "ĠTwelve": 5425,
      "Ġhanging": 5426,
      "Ġcomforted": 5427,
      "incense": 5428,
      "Ġnecessary": 5429,
      "Ġobstinate": 5430,
      "ĠMaÊ¹chir": 5431,
      "Ġespecially": 5432,
      "Ġfrankincense": 5433,
      "Ġfirstfruits": 5434,
      "Happy": 5435,
      "Will": 5436,
      "hith": 5437,
      "inÊ¹n": 5438,
      "rez": 5439,
      "Ġhig": 5440,
      "Ġfro": 5441,
      "Ġfasting": 5442,
      "ert": 5443,
      "Ġmus": 5444,
      "Ġmedi": 5445,
      "atÊ¹t": 5446,
      "Ġyield": 5447,
      "Ġcure": 5448,
      "Ê¹el": 5449,
      "Ġlu": 5450,
      "ĠJezÊ¹e": 5451,
      "stone": 5452,
      "Ġrevel": 5453,
      "Ġunt": 5454,
      "ĠGreat": 5455,
      "ĠHad": 5456,
      "ĠMen": 5457,
      "ĠMoÊ¹": 5458,
      "ushing": 5459,
      "ĠWas": 5460,
      "Ġaloud": 5461,
      "Ġalco": 5462,
      "ĠOg": 5463,
      "Ġjun": 5464,
      "ouses": 5465,
      "Ġchasing": 5466,
      "Ġwhenever": 5467,
      "Ġworn": 5468,
      "Ġlegs": 5469,
      "Ġcommon": 5470,
      ".âĢĻ*+": 5471,
      "Ġgreatness": 5472,
      "?âĢĿâĢĻ": 5473,
      "Ġfond": 5474,
      "Ġgrab": 5475,
      "Ġ400": 5476,
      "Ġwarned": 5477,
      "Ġactivity": 5478,
      "Ġstray": 5479,
      "Ġfalling": 5480,
      "Ġpoison": 5481,
      "Ġnights": 5482,
      "Ġdevoured": 5483,
      "Ġ500": 5484,
      "Ġlaws": 5485,
      "Ġcomplain": 5486,
      "Ġprayers": 5487,
      "Ġchooses": 5488,
      "Ġkinds": 5489,
      "Ġrelief": 5490,
      "Ġ600": 5491,
      "Ġsignal": 5492,
      "Ê¹da": 5493,
      "Ġfinal": 5494,
      "Ġsupported": 5495,
      "Ġconfusion": 5496,
      "Ġresidence": 5497,
      "Ġstumbled": 5498,
      "Ġtested": 5499,
      "Ġgrowing": 5500,
      "Ġsecretly": 5501,
      "Ġtreasury": 5502,
      "Ġportions": 5503,
      "Ġdealt": 5504,
      "Ġattacked": 5505,
      "Ġthreshold": 5506,
      "Ê¹zah": 5507,
      "Ġdishonor": 5508,
      "Ġdishonest": 5509,
      "Ġacquire": 5510,
      "Ġsynagogues": 5511,
      "Ġnakedness": 5512,
      "Ġtalking": 5513,
      "Ġurge": 5514,
      "Ġtraveling": 5515,
      "yss": 5516,
      "Ġvictory": 5517,
      "ĠHitÊ¹tite": 5518,
      "Ġredeemed": 5519,
      "Ġcapable": 5520,
      "Ġencamped": 5521,
      "Ġzeal": 5522,
      "Ġbarren": 5523,
      "Ġstrangers": 5524,
      "ĠNaÊ¹bal": 5525,
      "Ġarrogant": 5526,
      "Ġconspired": 5527,
      "Ġdouble": 5528,
      "Ġvillage": 5529,
      "Ġhomes": 5530,
      "Ġsharp": 5531,
      "Ġfacedown": 5532,
      "Ġcircumcision": 5533,
      "Ġsurrender": 5534,
      "Ġpomegranates": 5535,
      "ĠBetter": 5536,
      "ĠHezÊ¹ron": 5537,
      "Ġalcoho": 5538,
      "Ġjuniper": 5539,
      "!*+": 5540,
      "She": 5541,
      "cip": 5542,
      "cÊ¹c": 5543,
      "fo": 5544,
      "gins": 5545,
      "him": 5546,
      "kaÊ¹nah": 5547,
      "look": 5548,
      "oz": 5549,
      "oÊ¹a": 5550,
      "slay": 5551,
      "you": 5552,
      "Ġslee": 5553,
      "rews": 5554,
      "Ġhin": 5555,
      "Ġhating": 5556,
      "Ġbot": 5557,
      "Ġbribe": 5558,
      "Ġfr": 5559,
      "Ġmal": 5560,
      "Ġmad": 5561,
      "Ê¹ite": 5562,
      "Ġthief": 5563,
      "anced": 5564,
      "ĠJub": 5565,
      "Ġbell": 5566,
      "ashing": 5567,
      "Ġglean": 5568,
      "veh": 5569,
      "veless": 5570,
      "ĠTir": 5571,
      "ĠTurn": 5572,
      "imated": 5573,
      "storm": 5574,
      "ĠSp": 5575,
      "raiÊ¹ah": 5576,
      "ĠGazÊ¹a": 5577,
      "ĠGreet": 5578,
      "Ġmeek": 5579,
      "ĠHar": 5580,
      "ĠBu": 5581,
      "Ġstoned": 5582,
      "that": 5583,
      "Ġmyr": 5584,
      "roÊ¹": 5585,
      "road": 5586,
      "Ġselected": 5587,
      "ict": 5588,
      "Ġmanslay": 5589,
      "Ġspare": 5590,
      "rue": 5591,
      "ĠEx": 5592,
      "iÊ¹lah": 5593,
      "Ġsol": 5594,
      "Ġsolem": 5595,
      "Ġlovers": 5596,
      "Ġconse": 5597,
      "Ġchase": 5598,
      "Ġexist": 5599,
      "Ġdisown": 5600,
      "Ġcommission": 5601,
      "ĠRight": 5602,
      "quently": 5603,
      "Ġsinner": 5604,
      "ichÊ¹ri": 5605,
      "ilee": 5606,
      "Ġenroll": 5607,
      "Ġcontamin": 5608,
      "ĠEÊ¹n": 5609,
      "Ê¹tes": 5610,
      "Ġruled": 5611,
      "Ġcarc": 5612,
      "Ġshoot": 5613,
      "ĠShout": 5614,
      "Ġslow": 5615,
      "Ġguest": 5616,
      "Ġguide": 5617,
      "ĠAÊ¹chish": 5618,
      "Ġbelongings": 5619,
      "Ġstronger": 5620,
      "ertainly": 5621,
      "Ġexpel": 5622,
      "Ġwindows": 5623,
      "Ġcurses": 5624,
      "phraÊ¹tes": 5625,
      "ĠZeb": 5626,
      "ĠLikewise": 5627,
      "Ġstaying": 5628,
      "Ġprovided": 5629,
      "Ġestimated": 5630,
      "Ġmerciful": 5631,
      "Ġgrows": 5632,
      "Ġhiding": 5633,
      "ĠJoel": 5634,
      "Ġfootst": 5635,
      "ĠHaÊ¹ran": 5636,
      "Ġvalleys": 5637,
      "Ġsnare": 5638,
      "Ġoccup": 5639,
      "Ġaston": 5640,
      "Ġoppression": 5641,
      "Ġcease": 5642,
      "ĠAdam": 5643,
      "Ġchest": 5644,
      "Ġseemed": 5645,
      "Ġbetrayed": 5646,
      "Ġconfident": 5647,
      "Ġtrample": 5648,
      "Ġcustody": 5649,
      "Ġresponsible": 5650,
      "Ġpotter": 5651,
      "ĠHebrews": 5652,
      "Ġobserving": 5653,
      "ĠIthÊ¹a": 5654,
      "Ġswallowed": 5655,
      "Ġpatience": 5656,
      "Ġmerchants": 5657,
      "Ġexhau": 5658,
      "ĠShuÊ¹shan": 5659,
      "Ġreleased": 5660,
      "Ġplundered": 5661,
      "ĠProphets": 5662,
      "Ġornaments": 5663,
      "ĠScriptures": 5664,
      "ĠHiÊ¹vites": 5665,
      "Ġexample": 5666,
      "Ġextraordinary": 5667,
      "Ġfattened": 5668,
      "ĠSisÊ¹e": 5669,
      "Ġlux": 5670,
      "Ġsleeveless": 5671,
      "ĠJubilee": 5672,
      "Ġsolemn": 5673,
      "With": 5674,
      "fer": 5675,
      "honÊ¹a": 5676,
      "kah": 5677,
      "laÊ¹": 5678,
      "nach": 5679,
      "naÊ¹im": 5680,
      "rin": 5681,
      "rary": 5682,
      "Ġtail": 5683,
      "inion": 5684,
      "Ġbus": 5685,
      "Ġfla": 5686,
      "Ġmill": 5687,
      "Ġmirac": 5688,
      "Ġcit": 5689,
      "Ġcows": 5690,
      "Ġdil": 5691,
      "Ġdang": 5692,
      "Ġdying": 5693,
      "Ê¹ra": 5694,
      "Ġinex": 5695,
      "Ġnative": 5696,
      "ĠAch": 5697,
      "ĠAzÊ¹": 5698,
      "let": 5699,
      "ĠSi": 5700,
      "ĠSurely": 5701,
      "Ġweeds": 5702,
      "aly": 5703,
      "ĠHash": 5704,
      "Ġkissed": 5705,
      "Ġstag": 5706,
      "think": 5707,
      "Ġwhist": 5708,
      "Ġseals": 5709,
      "Ġdove": 5710,
      "ication": 5711,
      "Ġspy": 5712,
      "antage": 5713,
      "Ġshrew": 5714,
      "Ġoffend": 5715,
      "ĠNer": 5716,
      "ĠNeth": 5717,
      "ĠNaÊ¹d": 5718,
      "epress": 5719,
      "Ġdownfall": 5720,
      "Ġvan": 5721,
      "Ġargu": 5722,
      "eÊ¹dom": 5723,
      "Ġdisple": 5724,
      "Ġdisresp": 5725,
      "Ġunjust": 5726,
      "Ġunthink": 5727,
      "Ġlevel": 5728,
      "Ġrow": 5729,
      "Ġramp": 5730,
      "ĠRock": 5731,
      "quences": 5732,
      "Ġearthqu": 5733,
      "pheth": 5734,
      "ĠInc": 5735,
      "Ġcommanders": 5736,
      "Ġcontrary": 5737,
      "Ê¹ber": 5738,
      "Ġgraven": 5739,
      "Ġwarn": 5740,
      "Ġsecre": 5741,
      "Ġ35": 5742,
      "ĠAÊ¹mon": 5743,
      "ĠWhom": 5744,
      "Ġdepos": 5745,
      "aily": 5746,
      "aired": 5747,
      "Ġfearing": 5748,
      "Ġpassion": 5749,
      "Ġpraising": 5750,
      "Ġinhabiting": 5751,
      "Ġsends": 5752,
      "Ġrefined": 5753,
      "liÊ¹ab": 5754,
      "Ġpartial": 5755,
      "Ġholders": 5756,
      "Ġrelative": 5757,
      "Ġmarau": 5758,
      "Ġboil": 5759,
      "Ġpleases": 5760,
      "Ġpleasant": 5761,
      "Ġtrained": 5762,
      "Ġhoping": 5763,
      "Ġprovisions": 5764,
      "Ġadvance": 5765,
      "Ġadvantage": 5766,
      "Ġtrustworthy": 5767,
      "Ġhusbands": 5768,
      "Ġassist": 5769,
      "Ġsisters": 5770,
      "Ġstatues": 5771,
      "Ġtorrent": 5772,
      "Ġacceptable": 5773,
      "hiÊ¹kam": 5774,
      "Ġallowance": 5775,
      "Ġprisoner": 5776,
      "Ġreprove": 5777,
      "Ġbasis": 5778,
      "Ġconstant": 5779,
      "Ġpublicly": 5780,
      "Ġcrossing": 5781,
      "Ġreveal": 5782,
      "Ġcheer": 5783,
      "Ġgroups": 5784,
      "Ê¹neh": 5785,
      "Ġhumiliation": 5786,
      "Ġpleaded": 5787,
      "Ġmeaning": 5788,
      "Ġwinepress": 5789,
      "ĠPeÊ¹rez": 5790,
      "Ġembr": 5791,
      "Ġseparate": 5792,
      "Ġsurvive": 5793,
      "Ġrepentance": 5794,
      "ĠAgainst": 5795,
      "ĠNaÊ¹both": 5796,
      "Ġcraftsmen": 5797,
      "Ġextinguished": 5798,
      "Ġswarming": 5799,
      "Ġobedient": 5800,
      "Ġsenseless": 5801,
      "Ġquantity": 5802,
      "Ġearnestly": 5803,
      "Ġacknowledge": 5804,
      "Ġmurderer": 5805,
      "thoth": 5806,
      "Ġkidney": 5807,
      "hithÊ¹o": 5808,
      "Ġmanslayer": 5809,
      "Ġconsequences": 5810,
      "ĠNaÊ¹dab": 5811,
      "Ġdisrespect": 5812,
      "Ġunthinkable": 5813,
      "Of": 5814,
      "Rise": 5815,
      "Say": 5816,
      "bles": 5817,
      "body": 5818,
      "drin": 5819,
      "gg": 5820,
      "hi": 5821,
      "ioch": 5822,
      "jeÊ¹a": 5823,
      "mah": 5824,
      "meÊ¹": 5825,
      "pter": 5826,
      "rown": 5827,
      "rath": 5828,
      "sk": 5829,
      "tiÊ¹ah": 5830,
      "uously": 5831,
      "zÊ¹a": 5832,
      "Ġax": 5833,
      "Ġsighing": 5834,
      "Ġbands": 5835,
      "Ġmiss": 5836,
      "aters": 5837,
      "itate": 5838,
      "Ġcy": 5839,
      "Ġcou": 5840,
      "Ġdaily": 5841,
      "Ê¹he": 5842,
      "Ġph": 5843,
      "Ġpop": 5844,
      "Ġpains": 5845,
      "Ġthigh": 5846,
      "Ġnat": 5847,
      "Ġlust": 5848,
      "Ġlaz": 5849,
      "Ġbere": 5850,
      "Ġbefall": 5851,
      "ĠAth": 5852,
      "ĠAnt": 5853,
      "ĠTrue": 5854,
      "imÊ¹ri": 5855,
      "irts": 5856,
      "Ġnote": 5857,
      "ĠSil": 5858,
      "verty": 5859,
      "raw": 5860,
      "alÊ¹ti": 5861,
      "Ġasso": 5862,
      "Ġallot": 5863,
      "ĠHur": 5864,
      "ĠHaÊ¹n": 5865,
      "ĠBread": 5866,
      "ilities": 5867,
      "ĠFirst": 5868,
      "ĠOut": 5869,
      "oking": 5870,
      "Ġloving": 5871,
      "ĠNone": 5872,
      "ĠNeÊ¹": 5873,
      "ĠNinÊ¹e": 5874,
      "Ġintend": 5875,
      "osh": 5876,
      "udder": 5877,
      "Ġvo": 5878,
      "Ġproced": 5879,
      "elled": 5880,
      "Ġneeds": 5881,
      "Ġdisreg": 5882,
      "Ġlend": 5883,
      "Ġride": 5884,
      "Ġrises": 5885,
      "ĠRa": 5886,
      "olished": 5887,
      "Ġroots": 5888,
      "Ġcommands": 5889,
      "ĠEÊ¹ph": 5890,
      "ĠEÊ¹den": 5891,
      "ĠAsÊ¹a": 5892,
      "ĠAsia": 5893,
      "ortun": 5894,
      "Ġprophecy": 5895,
      "Ġperver": 5896,
      "Ġadmin": 5897,
      "Ġ47": 5898,
      "unished": 5899,
      "Ġbloodgu": 5900,
      "Ġdiscreet": 5901,
      "Ġ36": 5902,
      "Ġwalks": 5903,
      "ĠAmÊ¹a": 5904,
      "rence": 5905,
      "Ġtells": 5906,
      "Ê¹man": 5907,
      "Ġharps": 5908,
      "Ġfollows": 5909,
      "Ġpoverty": 5910,
      "Ġopening": 5911,
      "Ġwithered": 5912,
      "Ġnearby": 5913,
      "Ġgets": 5914,
      "Ġwinds": 5915,
      "Ġwindow": 5916,
      "Ġdivination": 5917,
      "Ġinstrument": 5918,
      "Ġconfir": 5919,
      "Ġconfess": 5920,
      "?âĢĻâĢĿ": 5921,
      "Ġspreading": 5922,
      "Ġaccounting": 5923,
      "Ġtrusted": 5924,
      "ounced": 5925,
      "Ġpitched": 5926,
      "Ġencou": 5927,
      "ĠHaÊ¹zor": 5928,
      "Ġdisplay": 5929,
      "Ġrebuked": 5930,
      "Ġdoorpost": 5931,
      "Ġoccas": 5932,
      "Ġharmful": 5933,
      "Ġapostle": 5934,
      "Ġbaptism": 5935,
      "Ġtroubled": 5936,
      "Ġgained": 5937,
      "Ġvirgins": 5938,
      "Ġacquired": 5939,
      "Ġrobes": 5940,
      "Ġwounds": 5941,
      "Ġunfaithfully": 5942,
      "Ġurged": 5943,
      "Ġembro": 5944,
      "Ġuproar": 5945,
      "ĠShoÊ¹b": 5946,
      "chers": 5947,
      "ĠTeÊ¹man": 5948,
      "ĠNaÊ¹hor": 5949,
      "Ġexultation": 5950,
      "Ġstrengthened": 5951,
      "Ġheights": 5952,
      "Ġpronouncement": 5953,
      "Ġdesignated": 5954,
      "ural": 5955,
      "Ġcreation": 5956,
      "ĠUnleavened": 5957,
      "Ġforsake": 5958,
      "Ġagreement": 5959,
      "ĠSanÊ¹he": 5960,
      "ĠSucÊ¹c": 5961,
      "Ġpresumptuous": 5962,
      "Ġstorehouses": 5963,
      "ĠHagÊ¹g": 5964,
      "Ġunpunished": 5965,
      "Ġhooks": 5966,
      "ĠRighteous": 5967,
      "Ġmiracles": 5968,
      "Ġdilig": 5969,
      "Ġshrewd": 5970,
      "Ġrampart": 5971,
      "Ġkidneys": 5972,
      "ĠAntioch": 5973,
      "Ġassoci": 5974,
      "Ġbloodguilt": 5975,
      "ĠSucÊ¹coth": 5976,
      "),+": 5977,
      "400": 5978,
      "Today": 5979,
      "beÊ¹": 5980,
      "cer": 5981,
      "duÊ¹": 5982,
      "ement": 5983,
      "gur": 5984,
      "himÊ¹e": 5985,
      "iance": 5986,
      "kÊ¹k": 5987,
      "mÊ¹ri": 5988,
      "off": 5989,
      "rison": 5990,
      "uit": 5991,
      "wed": 5992,
      "will": 5993,
      "zeÊ¹": 5994,
      "Ġsce": 5995,
      "Ġsout": 5996,
      "reÊ¹a": 5997,
      "Ġhips": 5998,
      "Ġbath": 5999,
      "Ġbald": 6000,
      "Ġfain": 6001,
      "onored": 6002,
      "Ġcred": 6003,
      "Ġcakes": 6004,
      "Ġdam": 6005,
      "Ġdig": 6006,
      "Ġthrust": 6007,
      "Ġinvest": 6008,
      "Ġinfection": 6009,
      "aration": 6010,
      "how": 6011,
      "Ġlod": 6012,
      "Ġlate": 6013,
      "Ġhealth": 6014,
      "ĠJok": 6015,
      "Ġeart": 6016,
      "Ġeun": 6017,
      "strate": 6018,
      "rive": 6019,
      "keh": 6020,
      "elÊ¹e": 6021,
      "Ġmemor": 6022,
      "adi": 6023,
      "Ġsail": 6024,
      "thite": 6025,
      "ĠMed": 6026,
      "ĠMar": 6027,
      "ĠMas": 6028,
      "ĠMag": 6029,
      "Ġdevel": 6030,
      "icest": 6031,
      "ĠCain": 6032,
      "ĠHeÊ¹": 6033,
      "ĠOmÊ¹ri": 6034,
      "Ġloss": 6035,
      "Ġintent": 6036,
      "Ġplent": 6037,
      "Ġplans": 6038,
      "ular": 6039,
      "ulted": 6040,
      "Ġchased": 6041,
      "Ġmenstru": 6042,
      "Ġprop": 6043,
      "phas": 6044,
      "shazÊ¹zar": 6045,
      "Ġungod": 6046,
      "Ġprior": 6047,
      "ĠRim": 6048,
      "ĠRise": 6049,
      "Ġseeks": 6050,
      "Ġrepe": 6051,
      "Ġrepaired": 6052,
      "ĠZeÊ¹b": 6053,
      "oths": 6054,
      "Ġresist": 6055,
      "Ġtwice": 6056,
      "Ġsets": 6057,
      "ĠSheÊ¹lah": 6058,
      "Ġregret": 6059,
      "Ġruined": 6060,
      "Ġcarri": 6061,
      "ĠBeyond": 6062,
      "unning": 6063,
      "lessed": 6064,
      "Ġnorther": 6065,
      "Ġcontinues": 6066,
      "Ġ31": 6067,
      "Ġ39": 6068,
      "Ġsilence": 6069,
      "Ġaction": 6070,
      "reneÊ¹": 6071,
      "Ê¹me": 6072,
      "Ê¹mai": 6073,
      "Ġpasses": 6074,
      "Ġdeadly": 6075,
      "Ġinstall": 6076,
      "Ġcompare": 6077,
      "Ġchoicest": 6078,
      "ĠUp": 6079,
      "Ġ120": 6080,
      "Ġstrict": 6081,
      "Ġpromises": 6082,
      "Ġcalves": 6083,
      "Ġhelped": 6084,
      "Ġrebel": 6085,
      "Ġinstruction": 6086,
      "lives": 6087,
      "Ê¹pher": 6088,
      "Ġdefense": 6089,
      "Ġmasters": 6090,
      "Ġextent": 6091,
      "Ġkilling": 6092,
      "Ġtorment": 6093,
      "Ġ130": 6094,
      "Ġdeserving": 6095,
      "Ġbesie": 6096,
      "airs": 6097,
      "Ġprisoners": 6098,
      "Ġreproof": 6099,
      "Ġrocks": 6100,
      "Ġhurry": 6101,
      "Ġbasin": 6102,
      "Ġproclaiming": 6103,
      "Ġ80": 6104,
      "Ġhappening": 6105,
      "Ġpanic": 6106,
      "Ġsufferings": 6107,
      "Ġweakness": 6108,
      "erers": 6109,
      "Ġopposition": 6110,
      "Ġsquares": 6111,
      "Ġsubjection": 6112,
      "Ġforgiveness": 6113,
      "Ġfreed": 6114,
      "Ġamazement": 6115,
      "Ġbeaten": 6116,
      "ilÊ¹la": 6117,
      "Ġdeceitful": 6118,
      "Ġconcubines": 6119,
      "Ġinspired": 6120,
      "Ġadvisers": 6121,
      "Ġridicule": 6122,
      "ĠMiÊ¹chal": 6123,
      "Ġpurchased": 6124,
      "Ġcruel": 6125,
      "Ġthoroughly": 6126,
      "ĠKeiÊ¹lah": 6127,
      "ĠLibÊ¹nah": 6128,
      "Ġturban": 6129,
      "Ê¹hur": 6130,
      "Ġdeputy": 6131,
      "Ġsmooth": 6132,
      "Ġbonds": 6133,
      "Ġspecial": 6134,
      "ĠTirÊ¹zah": 6135,
      "Ġprocedure": 6136,
      "Ġinvestig": 6137,
      "Ġearthen": 6138,
      "Ġeunuch": 6139,
      "600": 6140,
      "Ab": 6141,
      "Put": 6142,
      "Praise": 6143,
      "aph": 6144,
      "bin": 6145,
      "ca": 6146,
      "cents": 6147,
      "daiÊ¹ah": 6148,
      "gail": 6149,
      "iph": 6150,
      "kn": 6151,
      "me": 6152,
      "nite": 6153,
      "ping": 6154,
      "rations": 6155,
      "tal": 6156,
      "ung": 6157,
      "when": 6158,
      "wake": 6159,
      "Ġver": 6160,
      "Ġtresp": 6161,
      "ishes": 6162,
      "itical": 6163,
      "Ġcow": 6164,
      "Ġcatch": 6165,
      "Ê¹ke": 6166,
      "Ġpardon": 6167,
      "Ġthreat": 6168,
      "Ġnest": 6169,
      "Ġnose": 6170,
      "anse": 6171,
      "Ġlisted": 6172,
      "Ġheaps": 6173,
      "stret": 6174,
      "ric": 6175,
      "rab": 6176,
      "rained": 6177,
      "ĠGeÊ¹ba": 6178,
      "ĠBoth": 6179,
      "Ġstead": 6180,
      "thon": 6181,
      "thun": 6182,
      "thaÊ¹im": 6183,
      "roÊ¹er": 6184,
      "ained": 6185,
      "Ġoutcome": 6186,
      "Ġoutstret": 6187,
      "ĠWhether": 6188,
      "Ġspatter": 6189,
      "ĠFore": 6190,
      "ĠEphÊ¹e": 6191,
      "ĠHeÊ¹man": 6192,
      "Ġshudder": 6193,
      "arded": 6194,
      "Ġagreed": 6195,
      "Ġjaw": 6196,
      "Ġintense": 6197,
      "Ġabs": 6198,
      "Ġabst": 6199,
      "cks": 6200,
      "Ġsheikh": 6201,
      "Ġexperienced": 6202,
      "Ġarran": 6203,
      "pha": 6204,
      "ĠKen": 6205,
      "shib": 6206,
      "Ġunint": 6207,
      "ounded": 6208,
      "Ġcommits": 6209,
      "Ġrising": 6210,
      "Ġcold": 6211,
      "Ġcoals": 6212,
      "ĠRaÊ¹": 6213,
      "Ġpriesthood": 6214,
      "Ġsinning": 6215,
      "ipÊ¹p": 6216,
      "ĠZal": 6217,
      "Ġroar": 6218,
      "pheÊ¹lah": 6219,
      "Ġreserved": 6220,
      "Ġotherwise": 6221,
      "Ġcontent": 6222,
      "Ġcontrol": 6223,
      "Ġcling": 6224,
      "Ġclosed": 6225,
      "Ġgraves": 6226,
      "Ġwars": 6227,
      "Ġasks": 6228,
      "Ġjudging": 6229,
      "action": 6230,
      "acticing": 6231,
      "Ġconsent": 6232,
      "Ġbows": 6233,
      "Ġbowing": 6234,
      "Ġopenly": 6235,
      "Ġincur": 6236,
      "Ġgrounds": 6237,
      "Ġtempt": 6238,
      "Ġfinding": 6239,
      "Ġsanctifying": 6240,
      "Ġexpanse": 6241,
      "Ġ62": 6242,
      "Ġboasting": 6243,
      "onsider": 6244,
      "Ġrecovered": 6245,
      "Ġfinally": 6246,
      "ambour": 6247,
      "Ġwoe": 6248,
      "Ġpaying": 6249,
      "eshÊ¹": 6250,
      "Ġadvanced": 6251,
      "Ġwatchman": 6252,
      "Ġpracticing": 6253,
      "Ġdelic": 6254,
      "Ġdeliver": 6255,
      "Ġfortress": 6256,
      "Ġappears": 6257,
      "ĠJoÊ¹ash": 6258,
      "Ġencourage": 6259,
      "Ġcollap": 6260,
      "Ġdispute": 6261,
      "Ġdespite": 6262,
      "Ġhurt": 6263,
      "Ġmelt": 6264,
      "Ġriding": 6265,
      "Ġcollected": 6266,
      "Ġthinking": 6267,
      "Ġconceal": 6268,
      "Ġgrieved": 6269,
      "lishÊ¹a": 6270,
      "Ġrealize": 6271,
      "Ġexamined": 6272,
      "ĠReÊ¹ch": 6273,
      "Ġinclined": 6274,
      "Ġadversary": 6275,
      "ĠSarÊ¹ai": 6276,
      "Ġmistake": 6277,
      "Ġregularly": 6278,
      "Ġwinter": 6279,
      "ĠHorÊ¹eb": 6280,
      "Ġplagues": 6281,
      "Ġswept": 6282,
      "Ġdeny": 6283,
      "onsequently": 6284,
      "Ġcountryside": 6285,
      "Ġequal": 6286,
      "Ġzealous": 6287,
      "Ġstranger": 6288,
      "Ġexterminate": 6289,
      "Ġprevailed": 6290,
      "ĠGreek": 6291,
      "ĠGreeks": 6292,
      "Ġblossoms": 6293,
      "Alas": 6294,
      "Ġnurse": 6295,
      "urable": 6296,
      "Ġcreep": 6297,
      "iracy": 6298,
      "Ġworshipped": 6299,
      "Ġcords": 6300,
      "Ġeternal": 6301,
      "Ġeternity": 6302,
      "Ġdisturbed": 6303,
      "Ġignor": 6304,
      "Ġwrongdoers": 6305,
      "Ġeagerly": 6306,
      "Ġcarcasses": 6307,
      "Ġexhausted": 6308,
      "Ġearthquake": 6309,
      "Ġmarauder": 6310,
      "Ġcheerful": 6311,
      "Ġcymb": 6312,
      "Ġphys": 6313,
      "Ġlazy": 6314,
      "Ġvoices": 6315,
      "duÊ¹thun": 6316,
      "Ġscepter": 6317,
      "Ġmemorial": 6318,
      "ĠRimÊ¹mon": 6319,
      "Ġnorthern": 6320,
      "Ġoutstretched": 6321,
      "Ġarrange": 6322,
      "Call": 6323,
      "Even": 6324,
      "Ne": 6325,
      "Our": 6326,
      "Rem": 6327,
      "bi": 6328,
      "bread": 6329,
      "dan": 6330,
      "ffect": 6331,
      "hiÊ¹ah": 6332,
      "hron": 6333,
      "ient": 6334,
      "lo": 6335,
      "land": 6336,
      "miÊ¹": 6337,
      "moil": 6338,
      "no": 6339,
      "narÊ¹i": 6340,
      "rh": 6341,
      "shen": 6342,
      "ti": 6343,
      "tub": 6344,
      "tled": 6345,
      "zen": 6346,
      "Ġtie": 6347,
      "Ġtambour": 6348,
      "Ġwre": 6349,
      "Ġsust": 6350,
      "Ġhind": 6351,
      "Ġbone": 6352,
      "Ġfle": 6353,
      "Ġfet": 6354,
      "Ġtoil": 6355,
      "Ġtoler": 6356,
      "ator": 6357,
      "atched": 6358,
      "Ġcat": 6359,
      "Ġcla": 6360,
      "Ġcries": 6361,
      "Ġcunning": 6362,
      "Ġdressed": 6363,
      "Ġpin": 6364,
      "Ġpow": 6365,
      "Ġinau": 6366,
      "arrow": 6367,
      "arious": 6368,
      "hozÊ¹a": 6369,
      "Ġheap": 6370,
      "omm": 6371,
      "omach": 6372,
      "ĠId": 6373,
      "ĠIzÊ¹": 6374,
      "Ġwiped": 6375,
      "ashes": 6376,
      "utions": 6377,
      "idence": 6378,
      "Ġisol": 6379,
      "Ġeff": 6380,
      "Ġuseless": 6381,
      "adÊ¹an": 6382,
      "Ġsavi": 6383,
      "ĠHeth": 6384,
      "ĠBapt": 6385,
      "Ġstomach": 6386,
      "âĢĻ?": 6387,
      "Ġtheirs": 6388,
      "Ġdeaf": 6389,
      "ĠWail": 6390,
      "Ġmanna": 6391,
      "Ġdaylight": 6392,
      "ĠDoÊ¹": 6393,
      "nto": 6394,
      "Ġoffice": 6395,
      "chiÊ¹jah": 6396,
      "iff": 6397,
      "ifies": 6398,
      "Ġloath": 6399,
      "Ġintended": 6400,
      "Ġplants": 6401,
      "ulate": 6402,
      "Ġusing": 6403,
      "Ġoverp": 6404,
      "Ġoverlay": 6405,
      "Ġvarious": 6406,
      "Ġknob": 6407,
      "Ġknock": 6408,
      "Ġshoulders": 6409,
      "phun": 6410,
      "Ġneg": 6411,
      "ĠKir": 6412,
      "Ġblot": 6413,
      "Ġdisper": 6414,
      "Ġunbel": 6415,
      "Ġrim": 6416,
      "Ġrows": 6417,
      "ĠRather": 6418,
      "ĠRabÊ¹b": 6419,
      "ĠReturn": 6420,
      "ĠJudge": 6421,
      "Ġroaring": 6422,
      "othing": 6423,
      "Ġdecre": 6424,
      "Ġclim": 6425,
      "Ġenthron": 6426,
      "ĠEÊ¹ber": 6427,
      "ĠEÊ¹lah": 6428,
      "ĠSheb": 6429,
      "Ġwhomever": 6430,
      "Ġwhereas": 6431,
      "Ġadj": 6432,
      "ĠWhatever": 6433,
      "perÊ¹na": 6434,
      "Ġreturning": 6435,
      "istence": 6436,
      "Ġrested": 6437,
      "Ġsland": 6438,
      "Ġ34": 6439,
      "Ġdrinks": 6440,
      "Ġlistens": 6441,
      "Ġdisting": 6442,
      "Ġaff": 6443,
      "Ê¹mer": 6444,
      "Ġhighway": 6445,
      "Ġfearful": 6446,
      "!âĢĿ*": 6447,
      "Ġcamps": 6448,
      "ĠArÊ¹i": 6449,
      "aÊ¹ni": 6450,
      "ĠWithin": 6451,
      "Ġbadness": 6452,
      "Ġconcl": 6453,
      "Ġpresenting": 6454,
      "Ġgrind": 6455,
      "uÊ¹zar": 6456,
      "Ġbuilders": 6457,
      "ĠAmÊ¹ram": 6458,
      "Ġhappens": 6459,
      "Ġrecover": 6460,
      "Ġreconc": 6461,
      "Ġdivide": 6462,
      "Ġopportun": 6463,
      "Ġsupports": 6464,
      "Ġbroad": 6465,
      "aÊ¹drach": 6466,
      "Ġborne": 6467,
      "Ġdriving": 6468,
      "Ġcorp": 6469,
      "Ġprostitutes": 6470,
      "Ġtables": 6471,
      "Ġtestimony": 6472,
      "Ġrequire": 6473,
      "Ġhardship": 6474,
      "Ġmoving": 6475,
      "Ġcondition": 6476,
      "minÊ¹a": 6477,
      "Ġshouted": 6478,
      "ĠAshÊ¹ke": 6479,
      "Ġminds": 6480,
      "Ġfleeing": 6481,
      "Ġdevote": 6482,
      "Ġinvol": 6483,
      "vived": 6484,
      "Ġastounded": 6485,
      "Ġbranch": 6486,
      "Ġuprightness": 6487,
      "Ġhunger": 6488,
      "Ê¹ze": 6489,
      "Ġgrandson": 6490,
      "erer": 6491,
      "Ġexamines": 6492,
      "Ġrespecting": 6493,
      "Ġreminder": 6494,
      "Ġturmoil": 6495,
      "ĠâĢĶâĢĶ": 6496,
      "Ġpersecuting": 6497,
      "Ġimmoral": 6498,
      "Ġillustrations": 6499,
      "Ġcurtains": 6500,
      "Ġaccusation": 6501,
      "Ġpurify": 6502,
      "Ġconvention": 6503,
      "Ġwagon": 6504,
      "Ġconquered": 6505,
      "Ġlimit": 6506,
      "Ġarrogantly": 6507,
      "practicing": 6508,
      "Ġsubdued": 6509,
      "maÊ¹sa": 6510,
      "Ġparched": 6511,
      "Ġparaly": 6512,
      "ĠSalt": 6513,
      "Ġrevolts": 6514,
      "Ġsteward": 6515,
      "Ġinterests": 6516,
      "Ġgazell": 6517,
      "Ġstatement": 6518,
      "Ġcraftsman": 6519,
      "handed": 6520,
      "Ġfrightened": 6521,
      "Ġsurvivor": 6522,
      "Ġsurvivors": 6523,
      "Ġoverthrow": 6524,
      "Ġdirge": 6525,
      "Ġvisible": 6526,
      "Ġrecorded": 6527,
      "ĠRabÊ¹sha": 6528,
      "ĠZiÊ¹ba": 6529,
      "Ġmedium": 6530,
      "Ġrevelation": 6531,
      "foot": 6532,
      "Ġframe": 6533,
      "Ġastonished": 6534,
      "Ġbusiness": 6535,
      "Ġinexperienced": 6536,
      "Ġwhistle": 6537,
      "Ġembroide": 6538,
      "Ġcarriages": 6539,
      "Ġearthenware": 6540,
      "Ġsheikhs": 6541,
      "Ġcymbals": 6542,
      "Ġfetters": 6543,
      "Ġinaugur": 6544,
      "phunÊ¹neh": 6545,
      "Ġdisperse": 6546,
      "Ġunbelie": 6547,
      "Ġopportunity": 6548,
      "Am": 6549,
      "Surely": 6550,
      "bad": 6551,
      "com": 6552,
      "dah": 6553,
      "eis": 6554,
      "hah": 6555,
      "joice": 6556,
      "lood": 6557,
      "mas": 6558,
      "mith": 6559,
      "naz": 6560,
      "oard": 6561,
      "tell": 6562,
      "uce": 6563,
      "uck": 6564,
      "uÊ¹a": 6565,
      "une": 6566,
      "xer": 6567,
      "xÊ¹": 6568,
      "yed": 6569,
      "Ġrou": 6570,
      "Ġtied": 6571,
      "Ġwoke": 6572,
      "Ġought": 6573,
      "Ġbent": 6574,
      "Ġtotal": 6575,
      "Ġmed": 6576,
      "ingly": 6577,
      "oning": 6578,
      "Ġclaim": 6579,
      "Ġpound": 6580,
      "Ġpile": 6581,
      "Ġpatter": 6582,
      "Ġpiles": 6583,
      "aned": 6584,
      "omorrow": 6585,
      "ask": 6586,
      "Ġgn": 6587,
      "otion": 6588,
      "owered": 6589,
      "Ġele": 6590,
      "Ġemer": 6591,
      "Ġeffect": 6592,
      "ams": 6593,
      "Ġresemb": 6594,
      "Ġresol": 6595,
      "ĠSong": 6596,
      "hern": 6597,
      "rak": 6598,
      "ĠGitÊ¹t": 6599,
      "ĠGeÊ¹zer": 6600,
      "ĠGeshÊ¹": 6601,
      "add": 6602,
      "ading": 6603,
      "adel": 6604,
      "ĠHel": 6605,
      "ĠHaÊ¹dad": 6606,
      "ĠBilÊ¹": 6607,
      "Ġsto": 6608,
      "Ġstare": 6609,
      "ilight": 6610,
      "ĠMil": 6611,
      "ĠMirÊ¹i": 6612,
      "Ġupward": 6613,
      "ĠWadi": 6614,
      "hens": 6615,
      "Ġspot": 6616,
      "ĠCour": 6617,
      "ĠCertainly": 6618,
      "ĠEast": 6619,
      "Ġshaved": 6620,
      "aÊ¹i": 6621,
      "ptly": 6622,
      "ĠDay": 6623,
      "Ġagit": 6624,
      "earing": 6625,
      "Ġoffended": 6626,
      "chiÊ¹ah": 6627,
      "Ġjack": 6628,
      "ĠPr": 6629,
      "Ġabsol": 6630,
      "Ġabroad": 6631,
      "Ġnostri": 6632,
      "Ġvom": 6633,
      "Ġchang": 6634,
      "Ġexiled": 6635,
      "umin": 6636,
      "phib": 6637,
      "ĠKa": 6638,
      "Ġblown": 6639,
      "Ġblows": 6640,
      "atered": 6641,
      "shach": 6642,
      "oÊ¹mer": 6643,
      "Ġleavened": 6644,
      "Ġhost": 6645,
      "Ġcommitting": 6646,
      "ĠThree": 6647,
      "ĠRuth": 6648,
      "Ġsinful": 6649,
      "ĠZik": 6650,
      "Ġdeserve": 6651,
      "Ġaccord": 6652,
      "Ġaccuse": 6653,
      "Ġflatter": 6654,
      "Ġtwilight": 6655,
      "Ġentreat": 6656,
      "ĠEÊ¹l": 6657,
      "ĠAscents": 6658,
      "Ġfair": 6659,
      "Ġfailed": 6660,
      "Ê¹te": 6661,
      "Ê¹tai": 6662,
      "Ġobeis": 6663,
      "Ġraid": 6664,
      "Ġlonging": 6665,
      "Ġadult": 6666,
      "Ġmounted": 6667,
      "ĠAbel": 6668,
      "Ġshoots": 6669,
      "Ġenduring": 6670,
      "izes": 6671,
      "Ġ37": 6672,
      "rones": 6673,
      "ĠBaÊ¹ni": 6674,
      "Ġpoll": 6675,
      "Ġpowerless": 6676,
      "Ġ52": 6677,
      "Ġ58": 6678,
      "Ġblessings": 6679,
      "Ġsmash": 6680,
      "Ġstripped": 6681,
      "Ġprincip": 6682,
      "Ġevident": 6683,
      "Ġcutting": 6684,
      "Ġwindstorm": 6685,
      "Ġdetail": 6686,
      "Ġboundaries": 6687,
      "Ġfinest": 6688,
      "Ġguarding": 6689,
      "Ġconfron": 6690,
      "aÊ¹bor": 6691,
      "Ġshameful": 6692,
      "Ġdistressed": 6693,
      "Ġdefect": 6694,
      "Ġtestify": 6695,
      "Ġdeeply": 6696,
      "Ġbreaks": 6697,
      "Ġviolently": 6698,
      "Ġregards": 6699,
      "Ġregarded": 6700,
      "Ġdeserted": 6701,
      "Ġarrive": 6702,
      "Ġconsuming": 6703,
      "Ġencirc": 6704,
      "hiÊ¹tub": 6705,
      "Ġsnake": 6706,
      "Ġdespair": 6707,
      "ĠBeÊ¹la": 6708,
      "ĠStop": 6709,
      "ulfur": 6710,
      "Ġpalms": 6711,
      "bedÊ¹ne": 6712,
      "Ġrequested": 6713,
      "Ġdealings": 6714,
      "Ġflourish": 6715,
      "Ġcollectors": 6716,
      "Ġfutile": 6717,
      "Ġbitterly": 6718,
      "Ġleper": 6719,
      "Ġcompassionate": 6720,
      "Ġturtled": 6721,
      "Ġstubble": 6722,
      "Ġmultiplied": 6723,
      ".)+": 6724,
      "Stop": 6725,
      "eÊ¹dan": 6726,
      "Ġhaughtiness": 6727,
      "Ġdenied": 6728,
      "ĠOthers": 6729,
      "Ġrecognized": 6730,
      "Ġvict": 6731,
      "Ġcorruption": 6732,
      "Ġpurification": 6733,
      "Ġconvin": 6734,
      "Ġcondemned": 6735,
      "ĠTeach": 6736,
      "Ġanxiet": 6737,
      "Ġharshly": 6738,
      "Ġinjury": 6739,
      "Ġexpectation": 6740,
      "ĠMeÊ¹shach": 6741,
      "Ġvillages": 6742,
      "Ġnursing": 6743,
      "Ġcultivators": 6744,
      "Ġenvy": 6745,
      "Ġfrighten": 6746,
      "Ġridicul": 6747,
      "ĠMiÊ¹cha": 6748,
      "Ġdisturb": 6749,
      "ĠGoÊ¹shen": 6750,
      "haÊ¹zi": 6751,
      "Ġpierced": 6752,
      "Ġprivately": 6753,
      "Ġmurmur": 6754,
      "Ġresponsibilities": 6755,
      "Ê¹lag": 6756,
      "Ġdebt": 6757,
      "Ġrolled": 6758,
      "Ġreduced": 6759,
      "Ġavo": 6760,
      "ĠMerÊ¹i": 6761,
      "Ġabusively": 6762,
      "Ġdeviate": 6763,
      "Ġinflicted": 6764,
      "repare": 6765,
      "Ġoverflow": 6766,
      "Ġhigher": 6767,
      "Ġgrabbed": 6768,
      "himÊ¹a": 6769,
      "Ġmyrrh": 6770,
      "Ġpartiality": 6771,
      "Ġsouthern": 6772,
      "Ġungodly": 6773,
      "Ġunintention": 6774,
      "Ġcreeping": 6775,
      "ĠRabÊ¹bah": 6776,
      "Ġenthroned": 6777,
      "xerxÊ¹": 6778,
      "ĠGeshÊ¹ur": 6779,
      "ĠCourt": 6780,
      "Ġjackals": 6781,
      "Ġnostrils": 6782,
      "phibÊ¹o": 6783,
      "ĠZikÊ¹lag": 6784,
      "Ġobeisance": 6785,
      "Ġprincipal": 6786,
      "xerxÊ¹es": 6787,
      "Any": 6788,
      "Can": 6789,
      "Father": 6790,
      "Saul": 6791,
      "author": 6792,
      "cu": 6793,
      "gon": 6794,
      "gid": 6795,
      "hash": 6796,
      "iant": 6797,
      "lers": 6798,
      "old": 6799,
      "pass": 6800,
      "point": 6801,
      "sah": 6802,
      "tan": 6803,
      "uz": 6804,
      "yes": 6805,
      "zed": 6806,
      "Ġaro": 6807,
      "Ġoper": 6808,
      "Ġsed": 6809,
      "Ġsulfur": 6810,
      "reak": 6811,
      "reÊ¹ah": 6812,
      "rers": 6813,
      "Ġhat": 6814,
      "Ġhord": 6815,
      "Ġfit": 6816,
      "Ġfresh": 6817,
      "ĠmiÊ¹": 6818,
      "Ê¹rim": 6819,
      "Ġpet": 6820,
      "Ġthund": 6821,
      "Ġthrones": 6822,
      "hore": 6823,
      "Ġhewn": 6824,
      "ĠJop": 6825,
      "Ġbeard": 6826,
      "Ġbeating": 6827,
      "ĠAÊ¹n": 6828,
      "ĠAwake": 6829,
      "utely": 6830,
      "ĠTit": 6831,
      "Ġforb": 6832,
      "stood": 6833,
      "stones": 6834,
      "Ġrevenge": 6835,
      "Ġwithhold": 6836,
      "ĠSadd": 6837,
      "rip": 6838,
      "raps": 6839,
      "ety": 6840,
      "etime": 6841,
      "ĠGa": 6842,
      "ĠGiÊ¹": 6843,
      "Ġsakes": 6844,
      "ĠBer": 6845,
      "ĠBath": 6846,
      "Ġstar": 6847,
      "Ġstem": 6848,
      "âĢĻâĢĿ": 6849,
      "Ġliver": 6850,
      "ĠMan": 6851,
      "ĠMish": 6852,
      "Ġupset": 6853,
      "estus": 6854,
      "icated": 6855,
      "Ġspace": 6856,
      "Ġspared": 6857,
      "ĠFestus": 6858,
      "ĠConsequently": 6859,
      "ĠLazÊ¹a": 6860,
      "Ġshave": 6861,
      "ĠOlives": 6862,
      "ĠDeÊ¹b": 6863,
      "Ġloses": 6864,
      "ĠNah": 6865,
      "ĠPash": 6866,
      "roud": 6867,
      "aval": 6868,
      "ieve": 6869,
      "Ġaboard": 6870,
      "Ġoverjoy": 6871,
      "Ġovernight": 6872,
      "igor": 6873,
      "fected": 6874,
      "Ġexcl": 6875,
      "Ġexperi": 6876,
      "Ġlikewise": 6877,
      "Ġbeforehand": 6878,
      "Ġarre": 6879,
      "Ġworm": 6880,
      "phaz": 6881,
      "eÊ¹us": 6882,
      "ĠKings": 6883,
      "Ġours": 6884,
      "shon": 6885,
      "Ġunauthor": 6886,
      "Ġleaven": 6887,
      "Ġrot": 6888,
      "Ġrotten": 6889,
      "Ġcoast": 6890,
      "Ġbuck": 6891,
      "ĠZimÊ¹ri": 6892,
      "Ġdescent": 6893,
      "Ġapportion": 6894,
      "Ġworked": 6895,
      "neath": 6896,
      "Ġregions": 6897,
      "Ġrub": 6898,
      "Ġgrape": 6899,
      "Ġcarries": 6900,
      "ivid": 6901,
      "Ġ48": 6902,
      "mbling": 6903,
      "Ġshook": 6904,
      "lessly": 6905,
      "ĠShaÊ¹drach": 6906,
      "Ġpresiding": 6907,
      "Ġattached": 6908,
      "Ġsilenced": 6909,
      "ĠAmong": 6910,
      "Ġquit": 6911,
      "ocks": 6912,
      "ĠBaÊ¹als": 6913,
      "ĠBaÊ¹rak": 6914,
      "Ġuncle": 6915,
      "Ġharb": 6916,
      "Ġponder": 6917,
      "Ġopens": 6918,
      "Ġrefrain": 6919,
      "Ġincor": 6920,
      "Ġincline": 6921,
      "ĠAlong": 6922,
      "Ġmidday": 6923,
      "Ê¹loth": 6924,
      "ĠNeither": 6925,
      "Ġbuilds": 6926,
      "Ġrelate": 6927,
      "Ġmarket": 6928,
      "Ġhumility": 6929,
      "Ġdivine": 6930,
      "Ġsupplied": 6931,
      "thanÊ¹el": 6932,
      "Ê¹pe": 6933,
      "Ġsunr": 6934,
      "Ġgathers": 6935,
      "Ġsinging": 6936,
      "Ġdisgu": 6937,
      "!âĢĻâĢĿ+": 6938,
      "Ġkills": 6939,
      "Ġwatchmen": 6940,
      "Ġtrusting": 6941,
      "Ġpracticed": 6942,
      "Ġdefeat": 6943,
      "Ġrejoices": 6944,
      "Ġinsults": 6945,
      "hoÊ¹ron": 6946,
      "ĠJoiÊ¹a": 6947,
      "Ġneeded": 6948,
      "Ġindivid": 6949,
      "hiÊ¹el": 6950,
      "ĠJaÊ¹zer": 6951,
      "ĠStill": 6952,
      "Ġhurried": 6953,
      "ĠHaÊ¹mor": 6954,
      "Ġthrowing": 6955,
      "Ġrefusing": 6956,
      "Ġawa": 6957,
      "Ġbaskets": 6958,
      "Ġpunished": 6959,
      "Ġgirls": 6960,
      "ĠGrand": 6961,
      "Ġdeceive": 6962,
      "Ġperforming": 6963,
      "Ġfoolishly": 6964,
      "Ġsorry": 6965,
      "ĠRemove": 6966,
      "Ġbank": 6967,
      "Ġrealm": 6968,
      "ĠReÊ¹z": 6969,
      "Ġveil": 6970,
      "Ġrobber": 6971,
      "Ġrobbers": 6972,
      "Ġdrawing": 6973,
      "Ġsplendid": 6974,
      "Ġengage": 6975,
      "Ġascending": 6976,
      "Ġpersecuted": 6977,
      "Ê¹shom": 6978,
      "ĠGerÊ¹shom": 6979,
      "ĠHanÊ¹nah": 6980,
      "Ġdeclaration": 6981,
      "Ġequip": 6982,
      "ĠJewish": 6983,
      "Ġprosperity": 6984,
      "riÊ¹jah": 6985,
      "Ġfingers": 6986,
      "Ġarticle": 6987,
      "Ġsubdue": 6988,
      "ĠNeÊ¹bo": 6989,
      "Ġfragrance": 6990,
      "Ġinspect": 6991,
      "Ġscorched": 6992,
      "Ġscorching": 6993,
      "Ġgaze": 6994,
      "Ġexpressions": 6995,
      "Ġobedience": 6996,
      "Ġextremity": 6997,
      "Ġextremely": 6998,
      "Ġwelfare": 6999,
      "Ġgroaning": 7000,
      "Ġresponsibility": 7001,
      "Ġsafely": 7002,
      "Ġsafety": 7003,
      "Ġcolt": 7004,
      "ĠHuÊ¹shai": 7005,
      "ĠRepurch": 7006,
      "Ġensn": 7007,
      "Ġteachers": 7008,
      "Ġhamm": 7009,
      "Ġgenealogical": 7010,
      "Ġavenger": 7011,
      "Ġfrogs": 7012,
      "Ġalcoholic": 7013,
      "Ġsecrets": 7014,
      "Ġmissing": 7015,
      "ĠRaise": 7016,
      "ĠUpon": 7017,
      "known": 7018,
      "ĠIdÊ¹do": 7019,
      "ĠIzÊ¹har": 7020,
      "Ġsavior": 7021,
      "Ġloathsome": 7022,
      "ucees": 7023,
      "Ġpattern": 7024,
      "ĠMilÊ¹c": 7025,
      "Ġvomit": 7026,
      "Ġconfronted": 7027,
      "Ġarose": 7028,
      "Ġhordes": 7029,
      "ĠJopÊ¹pa": 7030,
      "ĠSadducees": 7031,
      "ĠDeÊ¹bir": 7032,
      "ĠPashÊ¹hur": 7033,
      "Ġoverjoyed": 7034,
      "Ġunauthorized": 7035,
      "*âĢĶ": 7036,
      "David": 7037,
      "Keep": 7038,
      "Most": 7039,
      "Paul": 7040,
      "Rab": 7041,
      "bushes": 7042,
      "che": 7043,
      "cour": 7044,
      "claim": 7045,
      "daÊ¹": 7046,
      "dak": 7047,
      "daÊ¹iah": 7048,
      "fast": 7049,
      "hal": 7050,
      "haÊ¹m": 7051,
      "ige": 7052,
      "iage": 7053,
      "lated": 7054,
      "mory": 7055,
      "naÊ¹": 7056,
      "naÊ¹ni": 7057,
      "pour": 7058,
      "ranged": 7059,
      "time": 7060,
      "tribe": 7061,
      "zah": 7062,
      "zilÊ¹la": 7063,
      "Ġiv": 7064,
      "Ġtens": 7065,
      "held": 7066,
      "Ġwing": 7067,
      "Ġwol": 7068,
      "Ġwines": 7069,
      "Ġow": 7070,
      "ndered": 7071,
      "Ġsim": 7072,
      "Ġhanged": 7073,
      "Ġbased": 7074,
      "isher": 7075,
      "Ġfil": 7076,
      "Ġfever": 7077,
      "Ġfol": 7078,
      "Ġtooth": 7079,
      "Ġmud": 7080,
      "esp": 7081,
      "Ġdip": 7082,
      "Ġdare": 7083,
      "Ê¹ro": 7084,
      "ĠInto": 7085,
      "ĠSen": 7086,
      "rai": 7087,
      "ĠAndrew": 7088,
      "Ġalliance": 7089,
      "ĠHouse": 7090,
      "ĠHinÊ¹n": 7091,
      "cell": 7092,
      "Ġliar": 7093,
      "Ġliken": 7094,
      "ĠMel": 7095,
      "ĠMich": 7096,
      "ĠMaking": 7097,
      "Ġdog": 7098,
      "icious": 7099,
      "Ġalike": 7100,
      "ĠOÊ¹ph": 7101,
      "arding": 7102,
      "aks": 7103,
      "akÊ¹k": 7104,
      "Ġoffers": 7105,
      "Ġjars": 7106,
      "Ġloom": 7107,
      "Ġplow": 7108,
      "Ġserious": 7109,
      "Ġexceed": 7110,
      "Ġexistence": 7111,
      "umb": 7112,
      "Ġarise": 7113,
      "eÊ¹nai": 7114,
      "Ġblast": 7115,
      "ignific": 7116,
      "ources": 7117,
      "Ġunited": 7118,
      "Ġrushed": 7119,
      "Ġcooking": 7120,
      "ĠRam": 7121,
      "olen": 7122,
      "Ġswine": 7123,
      "ĠZac": 7124,
      "ĠZiph": 7125,
      "Ġroast": 7126,
      "Ġletting": 7127,
      "Ġresources": 7128,
      "Ġenraged": 7129,
      "Ġflute": 7130,
      "ĠEgÊ¹lon": 7131,
      "Ġtwig": 7132,
      "Ġbegged": 7133,
      "Ġfoll": 7134,
      "Ê¹tan": 7135,
      "Ê¹tus": 7136,
      "Ġscoff": 7137,
      "Ġundert": 7138,
      "Ġunderstood": 7139,
      "Ġunderneath": 7140,
      "ĠSheph": 7141,
      "Ġperm": 7142,
      "ĠAbout": 7143,
      "Ġwarm": 7144,
      "Ġwarfare": 7145,
      "ĠShim": 7146,
      "Ġpreserved": 7147,
      "ĠAÊ¹ch": 7148,
      "ossible": 7149,
      "ossessed": 7150,
      "Ġuncovered": 7151,
      "Ġhighly": 7152,
      "Ġfears": 7153,
      "Ġsurpr": 7154,
      "Ġsurvived": 7155,
      "ĠOnce": 7156,
      "Ġgrains": 7157,
      "Ġsmashed": 7158,
      "Ġstrugg": 7159,
      "ĠUnder": 7160,
      "Ġhelm": 7161,
      "Ġstrip": 7162,
      "Ġpersonal": 7163,
      "Ġgras": 7164,
      "Ġgray": 7165,
      "Ġdestroyer": 7166,
      "Ġskies": 7167,
      "Ġsatraps": 7168,
      "Ġrecomm": 7169,
      "Ġrescues": 7170,
      "Ġcursing": 7171,
      "Ġhoped": 7172,
      "Ġconfined": 7173,
      "boÊ¹sheth": 7174,
      "ĠAnother": 7175,
      "Ġentering": 7176,
      "Ġreceiving": 7177,
      "Ġdirected": 7178,
      "sheÊ¹a": 7179,
      "Ġresides": 7180,
      "Ġimpart": 7181,
      "Ġimpossible": 7182,
      "Ġtranslated": 7183,
      "cia": 7184,
      "Ġfortune": 7185,
      "Ġinsist": 7186,
      "Ġinsignific": 7187,
      "Ġdeeper": 7188,
      "Ġteraph": 7189,
      "Ġlaying": 7190,
      "Ġroads": 7191,
      "Ġsatisfaction": 7192,
      "ĠHerÊ¹mon": 7193,
      "Ġdesolation": 7194,
      "Ġsearching": 7195,
      "ĠHaÊ¹gar": 7196,
      "Ġcompanies": 7197,
      "ĠPharisee": 7198,
      "Ġfigures": 7199,
      "Ġfills": 7200,
      "Ġlifetime": 7201,
      "uriant": 7202,
      "itÊ¹tim": 7203,
      "Ġformerly": 7204,
      "Ġconceived": 7205,
      "Ġconsiderable": 7206,
      "Ê¹kil": 7207,
      "Ġapproaching": 7208,
      "Ġselling": 7209,
      "Ġrulership": 7210,
      "Ġaccomplished": 7211,
      "Ġquarant": 7212,
      "Ġtalent": 7213,
      "Ġdominion": 7214,
      "Ġengaged": 7215,
      "Ġsubjected": 7216,
      "rooms": 7217,
      "Ê¹sah": 7218,
      "Ġnetwork": 7219,
      "Ġfreely": 7220,
      "Ġfreeness": 7221,
      "Ġlampstands": 7222,
      "Ġpositions": 7223,
      "Ġscheme": 7224,
      "Ġquestioned": 7225,
      "ĠTeÊ¹rah": 7226,
      "Ġstubbornly": 7227,
      "Ġtaunted": 7228,
      "Ġextermination": 7229,
      "Ġdragon": 7230,
      "Ġisland": 7231,
      "Ġconspiracy": 7232,
      "Ġdoub": 7233,
      "Ġmember": 7234,
      "Ġrevolt": 7235,
      "Ġfragments": 7236,
      "Ġpicked": 7237,
      "Ġseasons": 7238,
      "Ġplaying": 7239,
      "Ġtaste": 7240,
      "Ġadviser": 7241,
      "Ġadorned": 7242,
      "Ġbrazen": 7243,
      "Ġuprooted": 7244,
      "Ġwithdrew": 7245,
      "Ġrisen": 7246,
      "Ġpermitted": 7247,
      "Ġnailed": 7248,
      "Ġcapital": 7249,
      "ĠAÊ¹moz": 7250,
      "Ġlawlessness": 7251,
      "Ġdisobedient": 7252,
      "Ġhypocrites": 7253,
      "Ġslopes": 7254,
      "Ġcopyist": 7255,
      "Ġresponded": 7256,
      "Ġbelly": 7257,
      "Ġsolid": 7258,
      "Ġenrollment": 7259,
      "ĠEÊ¹noch": 7260,
      "Ġluxuriant": 7261,
      "nachÊ¹er": 7262,
      "Ġcitadel": 7263,
      "Ġstagger": 7264,
      "ĠIncline": 7265,
      "Ġpopul": 7266,
      "ĠSilas": 7267,
      "Ġallotted": 7268,
      "ĠEÊ¹phron": 7269,
      "ĠRighteousness": 7270,
      "Ġcredit": 7271,
      "binÊ¹a": 7272,
      "Ġabsent": 7273,
      "ĠReÊ¹chab": 7274,
      "Ġconvinced": 7275,
      "Ġunintentionally": 7276,
      "Ġhatred": 7277,
      "ĠTitus": 7278,
      "ĠNahÊ¹shon": 7279,
      "Ġincorrupt": 7280,
      "ĠRepurchaser": 7281,
      "zilÊ¹lai": 7282,
      "Ġivory": 7283,
      "Ġwineskins": 7284,
      "Ġfoliage": 7285,
      "ĠHinÊ¹nom": 7286,
      "ĠOÊ¹phir": 7287,
      "Ġinsignificant": 7288,
      "Ġteraphim": 7289,
      "50": 7290,
      ":*+": 7291,
      "Again": 7292,
      "Each": 7293,
      "Re": 7294,
      "Sit": 7295,
      "Sir": 7296,
      "bon": 7297,
      "bar": 7298,
      "break": 7299,
      "car": 7300,
      "crib": 7301,
      "dad": 7302,
      "down": 7303,
      "dled": 7304,
      "ew": 7305,
      "eem": 7306,
      "gage": 7307,
      "had": 7308,
      "hite": 7309,
      "koÊ¹": 7310,
      "lined": 7311,
      "mun": 7312,
      "nes": 7313,
      "peÊ¹": 7314,
      "pect": 7315,
      "yr": 7316,
      "yx": 7317,
      "zur": 7318,
      "zel": 7319,
      "zaÊ¹": 7320,
      "Ġtit": 7321,
      "Ġair": 7322,
      "Ġsowing": 7323,
      "Ġhos": 7324,
      "Ġhire": 7325,
      "Ġhyss": 7326,
      "Ġhonored": 7327,
      "erÊ¹": 7328,
      "Ġtool": 7329,
      "Ġmail": 7330,
      "iti": 7331,
      "orters": 7332,
      "Ġcens": 7333,
      "Ġcaval": 7334,
      "Ġdim": 7335,
      "ench": 7336,
      "Ê¹ran": 7337,
      "Ġpins": 7338,
      "Ġproud": 7339,
      "Ġpige": 7340,
      "Ġthin": 7341,
      "Ġinsol": 7342,
      "Ġiniti": 7343,
      "arÊ¹": 7344,
      "hob": 7345,
      "Ġnarrow": 7346,
      "ĠAiÊ¹": 7347,
      "ĠAÊ¹nah": 7348,
      "otest": 7349,
      "utters": 7350,
      "lel": 7351,
      "idÊ¹ron": 7352,
      "ĠTah": 7353,
      "aming": 7354,
      "Ġreck": 7355,
      "Ġrene": 7356,
      "Ġreaches": 7357,
      "ĠSear": 7358,
      "enter": 7359,
      "Ġweek": 7360,
      "Ġmemory": 7361,
      "Ġascent": 7362,
      "Ġsapp": 7363,
      "ĠHaÊ¹nan": 7364,
      "Ġstro": 7365,
      "Ġstab": 7366,
      "Ġstolen": 7367,
      "âĢĻ+": 7368,
      "Ġsect": 7369,
      "Ġsection": 7370,
      "ĠMust": 7371,
      "ĠMak": 7372,
      "Ġdeject": 7373,
      "oped": 7374,
      "Ġdoves": 7375,
      "usive": 7376,
      "ĠWould": 7377,
      "henÊ¹na": 7378,
      "Ġspan": 7379,
      "Ġspies": 7380,
      "Ġspilled": 7381,
      "ruct": 7382,
      "ĠEphÊ¹": 7383,
      "ĠHeaven": 7384,
      "ĠHeÊ¹ber": 7385,
      "ĠOpen": 7386,
      "ĠDeÊ¹dan": 7387,
      "akers": 7388,
      "Ġoffending": 7389,
      "Ġjail": 7390,
      "Ġloops": 7391,
      "ĠNim": 7392,
      "ĠNob": 7393,
      "ĠNazÊ¹a": 7394,
      "ppers": 7395,
      "Ġrip": 7396,
      "elling": 7397,
      "umber": 7398,
      "Ġarranged": 7399,
      "ĠKidÊ¹ron": 7400,
      "Ġleap": 7401,
      "Ġhoof": 7402,
      ".âĢĻ*": 7403,
      "Ġruth": 7404,
      "Ġrushing": 7405,
      "Ġeverywhere": 7406,
      "Ġrepaid": 7407,
      "ĠZichÊ¹ri": 7408,
      "Ġroost": 7409,
      "ishing": 7410,
      "Ġdecide": 7411,
      "Ġflash": 7412,
      "ĠEÊ¹bed": 7413,
      "ĠAsk": 7414,
      "Ġfoes": 7415,
      "Ġfold": 7416,
      "aging": 7417,
      "Ê¹to": 7418,
      "Ġbacks": 7419,
      "Ġraven": 7420,
      "Ġrafter": 7421,
      "Ġraises": 7422,
      "Ġraising": 7423,
      "Ġrules": 7424,
      "Ġwarp": 7425,
      "Ġwaterless": 7426,
      "Ê¹nam": 7427,
      "Ġattain": 7428,
      "Ġattitude": 7429,
      "ĠTogether": 7430,
      "Ġactions": 7431,
      "dee": 7432,
      "dek": 7433,
      "ibÊ¹lah": 7434,
      "Ġdwells": 7435,
      "Ġdistin": 7436,
      "Ê¹mim": 7437,
      "Ġconsulted": 7438,
      "!âĢĿ*+": 7439,
      "Ġrefres": 7440,
      "Ġsurpass": 7441,
      "Ġincited": 7442,
      "ĠLevitical": 7443,
      "Ġsmell": 7444,
      "Ġburns": 7445,
      "ĠBethÊ¹a": 7446,
      "Ġpresents": 7447,
      "ĠRejoice": 7448,
      "Ġpromptly": 7449,
      "retch": 7450,
      "Ġskins": 7451,
      "Ġfavorably": 7452,
      "Ġwheel": 7453,
      "dened": 7454,
      "Ġsupplies": 7455,
      "Ġsupporters": 7456,
      "Ġproduct": 7457,
      "ĠDanÊ¹ites": 7458,
      "Ê¹shan": 7459,
      "Ġwaited": 7460,
      "Ġregulation": 7461,
      "Ġimpurity": 7462,
      "Ġimprison": 7463,
      "they": 7464,
      "Ġrequired": 7465,
      "Ġperishing": 7466,
      "Ġsymp": 7467,
      "Ġmoons": 7468,
      "Ġlayer": 7469,
      "Ġviolate": 7470,
      "Ġviolated": 7471,
      "ĠJoÊ¹za": 7472,
      "Ê¹gah": 7473,
      "Ġsickle": 7474,
      "ĠEverything": 7475,
      "Ġruns": 7476,
      "Ġreasoning": 7477,
      "ĠHaÊ¹zar": 7478,
      "ĠStay": 7479,
      "ĠDec": 7480,
      "Ġdemonstrate": 7481,
      "Ġrefuses": 7482,
      "Ġvisionary": 7483,
      "Ġpouring": 7484,
      "Ġrods": 7485,
      "Ġcollecting": 7486,
      "Ġdeceived": 7487,
      "Ġwealthy": 7488,
      "Ġterrify": 7489,
      "Ġterrifying": 7490,
      "Ġvalu": 7491,
      "Ġconceive": 7492,
      "Ġ250": 7493,
      "Ġswears": 7494,
      "Ġthornbushes": 7495,
      "Ġincreased": 7496,
      "Ġincreasing": 7497,
      "Ġpersecute": 7498,
      "Ġstirs": 7499,
      "Ġsecurely": 7500,
      "Ġstarting": 7501,
      "Ġdiseases": 7502,
      "Ġshedding": 7503,
      "ĠTimÊ¹nah": 7504,
      "Ġdisgraceful": 7505,
      "Ġbags": 7506,
      "Ġaccused": 7507,
      "biÊ¹hu": 7508,
      "Ġtaunts": 7509,
      "Ġblaze": 7510,
      "Ġexterminated": 7511,
      "ĠNazÊ¹i": 7512,
      "Ġobserves": 7513,
      "ĠZoÊ¹bah": 7514,
      "Ġtreacherously": 7515,
      "adÊ¹dan": 7516,
      "adÊ¹dai": 7517,
      "Ġquarrel": 7518,
      "Ġquarreling": 7519,
      "Ġoriginate": 7520,
      "Ġexercise": 7521,
      "Ġcontainers": 7522,
      "Ġduty": 7523,
      "Ġswallow": 7524,
      "Ġdisappear": 7525,
      "Ġsenses": 7526,
      "identally": 7527,
      "Ġobtained": 7528,
      "Ġsuperv": 7529,
      "Ġsuperior": 7530,
      "Ġskillful": 7531,
      "Ġcorresponding": 7532,
      "Ġoverwhelmed": 7533,
      "Ġgreedy": 7534,
      "ĠMahÊ¹li": 7535,
      "Ġunreasonable": 7536,
      "Ġcapitals": 7537,
      "ĠKeÊ¹dar": 7538,
      "ĠKeÊ¹desh": 7539,
      "rarÊ¹ites": 7540,
      "Ġinform": 7541,
      "ĠDaÊ¹gon": 7542,
      "Ġmusic": 7543,
      "Ġbottle": 7544,
      "ĠZebÊ¹e": 7545,
      "Ġfootstep": 7546,
      "Ġarguments": 7547,
      "Ġembraced": 7548,
      "Ġencouraged": 7549,
      "Ġoccasion": 7550,
      "Ġlodging": 7551,
      "ĠMartha": 7552,
      "ĠZeÊ¹bah": 7553,
      "Ġbesieged": 7554,
      "Ġfreedom": 7555,
      "Ġjaws": 7556,
      "ĠRaÊ¹hab": 7557,
      "Neither": 7558,
      "Ġisolated": 7559,
      "ĠBaptist": 7560,
      "Ġdecrees": 7561,
      "Ġgazelle": 7562,
      "Ġembroidered": 7563,
      "Ġinauguration": 7564,
      "Ġabsolutely": 7565,
      "Ġavoid": 7566,
      "ĠCourtyard": 7567,
      "gidÊ¹do": 7568,
      "Ġpetition": 7569,
      "Ġthunders": 7570,
      "Ġsunrise": 7571,
      "Ġhammered": 7572,
      "cribed": 7573,
      "munÊ¹na": 7574,
      "Ġhospit": 7575,
      "Ġhyssop": 7576,
      "Ġcavalry": 7577,
      "Ġsapph": 7578,
      "Ġsympath": 7579,
      "700": 7580,
      "Blessed": 7581,
      "Gather": 7582,
      "Jes": 7583,
      "John": 7584,
      "One": 7585,
      "Sam": 7586,
      "bab": 7587,
      "balÊ¹l": 7588,
      "con": 7589,
      "cest": 7590,
      "carÊ¹i": 7591,
      "dulÊ¹lam": 7592,
      "ef": 7593,
      "four": 7594,
      "gÊ¹a": 7595,
      "grip": 7596,
      "hum": 7597,
      "lu": 7598,
      "lene": 7599,
      "mers": 7600,
      "mond": 7601,
      "pol": 7602,
      "rat": 7603,
      "ras": 7604,
      "rother": 7605,
      "rating": 7606,
      "site": 7607,
      "sons": 7608,
      "tree": 7609,
      "toph": 7610,
      "wo": 7611,
      "who": 7612,
      "Ġwake": 7613,
      "Ġoven": 7614,
      "inence": 7615,
      "Ġbeds": 7616,
      "Ġborrow": 7617,
      "Ġfab": 7618,
      "Ġtops": 7619,
      "Ġtoken": 7620,
      "Ġtonight": 7621,
      "Ġmoth": 7622,
      "itable": 7623,
      "ories": 7624,
      "Ġcud": 7625,
      "Ġdign": 7626,
      "Ġdough": 7627,
      "Ê¹le": 7628,
      "Ġpen": 7629,
      "Ġpolished": 7630,
      "Ġthus": 7631,
      "hoÊ¹li": 7632,
      "Ġnets": 7633,
      "Ġlit": 7634,
      "Ġlam": 7635,
      "Ġlaughter": 7636,
      "oman": 7637,
      "ĠIÊ¹": 7638,
      "ĠIbÊ¹": 7639,
      "veth": 7640,
      "vels": 7641,
      "ĠTal": 7642,
      "ĠTaÊ¹": 7643,
      "ĠThom": 7644,
      "ĠToday": 7645,
      "Ġonyx": 7646,
      "Ġforces": 7647,
      "irites": 7648,
      "Ġwithheld": 7649,
      "ĠSaÊ¹": 7650,
      "ĠSudden": 7651,
      "acies": 7652,
      "ental": 7653,
      "âĢĿ?+": 7654,
      "Ġweeks": 7655,
      "ĠGog": 7656,
      "ads": 7657,
      "ĠHav": 7658,
      "Ġstored": 7659,
      "thai": 7660,
      "thuÊ¹el": 7661,
      "Ġancest": 7662,
      "andise": 7663,
      "âĢĻ?âĢĿ": 7664,
      "âĢĻ?âĢĿ+": 7665,
      "Ġwhis": 7666,
      "Ġseer": 7667,
      "Ġselect": 7668,
      "ĠMo": 7669,
      "ĠMes": 7670,
      "ĠMik": 7671,
      "ĠMeÊ¹d": 7672,
      "Ġdem": 7673,
      "Ġdeer": 7674,
      "Ġoutsk": 7675,
      "Ġpear": 7676,
      "ĠCl": 7677,
      "ĠCor": 7678,
      "ĠCall": 7679,
      "ĠCorn": 7680,
      "ĠLeÊ¹b": 7681,
      "Ġbrim": 7682,
      "ĠEr": 7683,
      "Ġalar": 7684,
      "Ġalmond": 7685,
      "Ġshade": 7686,
      "Ġshines": 7687,
      "Ġshatter": 7688,
      "Ġdaybreak": 7689,
      "ife": 7690,
      "Ġlog": 7691,
      "ĠPel": 7692,
      "ĠPuÊ¹": 7693,
      "ĠPadÊ¹dan": 7694,
      "istr": 7695,
      "osity": 7696,
      "Ġorch": 7697,
      "ppose": 7698,
      "Ġabhor": 7699,
      "Ġdownpour": 7700,
      "Ġovercome": 7701,
      "Ġnoble": 7702,
      "Ġvigor": 7703,
      "Ġchast": 7704,
      "Ġchaff": 7705,
      "ckled": 7706,
      "Ġprogress": 7707,
      "Ġarchers": 7708,
      "Ġunse": 7709,
      "avement": 7710,
      "Ġrash": 7711,
      "ĠRibÊ¹lah": 7712,
      "Ġsink": 7713,
      "?âĢĿ*": 7714,
      "Ġwatched": 7715,
      "Ġremotest": 7716,
      "Ġspeckled": 7717,
      "ildren": 7718,
      "Ġresults": 7719,
      "Ġaccum": 7720,
      "Ġflames": 7721,
      "Ġappet": 7722,
      "Ġapply": 7723,
      "Ġappend": 7724,
      "Ġcontend": 7725,
      "arers": 7726,
      "Ġclo": 7727,
      "Ġentry": 7728,
      "ĠEÊ¹hud": 7729,
      "ĠShel": 7730,
      "Ġrav": 7731,
      "Ġrais": 7732,
      "Ġfaithfully": 7733,
      "ĠBecome": 7734,
      "Ġstandpoint": 7735,
      "Ġ49": 7736,
      "mbol": 7737,
      "Ġshot": 7738,
      "Ġshore": 7739,
      "apÊ¹p": 7740,
      "Ġchildless": 7741,
      "Ġrestrain": 7742,
      "Ġimag": 7743,
      "Ġattire": 7744,
      "swer": 7745,
      "Ġqual": 7746,
      "ĠAÊ¹ram": 7747,
      "oyed": 7748,
      "oyal": 7749,
      "ibly": 7750,
      "Ġdwelled": 7751,
      "Ġdepri": 7752,
      "Ġharass": 7753,
      "Ġsurging": 7754,
      "Ġcompre": 7755,
      "Ġcompuls": 7756,
      "Ġcharges": 7757,
      "liÊ¹hu": 7758,
      "Ġbehave": 7759,
      "Ġmarching": 7760,
      "Ġcongregated": 7761,
      "ĠOrÊ¹nan": 7762,
      "Ġtrade": 7763,
      "Ê¹don": 7764,
      "Ê¹dah": 7765,
      "Ġoppon": 7766,
      "Ġdescending": 7767,
      "Ġdescendant": 7768,
      "Ġsuppose": 7769,
      "Ġreading": 7770,
      "Ġforgot": 7771,
      "Ġproductive": 7772,
      "Ġbelieving": 7773,
      "!âĢĻ)": 7774,
      "Ġpractical": 7775,
      "Ġterrors": 7776,
      "laimed": 7777,
      "Ġobeying": 7778,
      "Ġstatue": 7779,
      "Ġbreakdown": 7780,
      "Ġsymbol": 7781,
      "Ġmoves": 7782,
      "Ġdesolated": 7783,
      "ĠJoÊ¹ah": 7784,
      "Ġterritories": 7785,
      "Ġpitch": 7786,
      "Ġconsumes": 7787,
      "Ġpursu": 7788,
      "Ġclothes": 7789,
      "uÊ¹bal": 7790,
      "ĠHaÊ¹rim": 7791,
      "Ġhairs": 7792,
      "Ġdoorkeepers": 7793,
      "deÊ¹an": 7794,
      "ĠBeÊ¹or": 7795,
      "Ġinvade": 7796,
      "Ġinterior": 7797,
      "Ġawaken": 7798,
      "Ġcupbearer": 7799,
      "Ġcontributions": 7800,
      "Ġboys": 7801,
      "Ġthinks": 7802,
      "Ġgardens": 7803,
      "Ġthornbush": 7804,
      "Ġaccompany": 7805,
      "Ġpleading": 7806,
      "Ġdominate": 7807,
      "Ġcamel": 7808,
      "Ġdiscerning": 7809,
      "Ġtombs": 7810,
      "ĠPeÊ¹or": 7811,
      "ĠPeÊ¹kah": 7812,
      "Ġstirring": 7813,
      "Ġmetalwork": 7814,
      "Ġsaddled": 7815,
      "Ġsaddened": 7816,
      "Ġpurified": 7817,
      "Ġfierce": 7818,
      "abÊ¹bas": 7819,
      "Ġwaged": 7820,
      "Ġbrightness": 7821,
      "Ġplainly": 7822,
      "biÊ¹ram": 7823,
      "Ġflowers": 7824,
      "Ġwaste": 7825,
      "Ġloads": 7826,
      "ĠNazirites": 7827,
      "Ġserpents": 7828,
      "Ġcornerstone": 7829,
      "Also": 7830,
      "Ġmentioned": 7831,
      "Ġsprinkle": 7832,
      "Ġquarrels": 7833,
      "Ġforsaken": 7834,
      "Ġmerchandise": 7835,
      "loÊ¹phe": 7836,
      "ĠDiÊ¹bon": 7837,
      "ĠPaÊ¹ran": 7838,
      "Ġexhort": 7839,
      "Ġdisappointed": 7840,
      "niÊ¹as": 7841,
      "Everyone": 7842,
      "ĠBeloved": 7843,
      "Ġbrand": 7844,
      "Ġmurmuring": 7845,
      "Ġpresumptuously": 7846,
      "Ġdistributed": 7847,
      "Ġmagnific": 7848,
      "Ġvisit": 7849,
      "Ġcolor": 7850,
      "ĠCushÊ¹ite": 7851,
      "ĠKeÊ¹naz": 7852,
      "Ġskillfully": 7853,
      "Ġdivorce": 7854,
      "Ġavail": 7855,
      "Ġheirs": 7856,
      "Ġoverseer": 7857,
      "Ġposts": 7858,
      "Ġtemples": 7859,
      "Ê¹chi": 7860,
      "Ġmaintain": 7861,
      "Ġmildness": 7862,
      "Ġcontamination": 7863,
      "Ġdanger": 7864,
      "Ġpassionate": 7865,
      "Ġnatural": 7866,
      "Ġbereaved": 7867,
      "ĠHaÊ¹nun": 7868,
      "Ġadminister": 7869,
      "Ġdoorposts": 7870,
      "ĠHagÊ¹gai": 7871,
      "Ġdiligent": 7872,
      "elÊ¹ech": 7873,
      "ĠMedes": 7874,
      "ĠMagÊ¹da": 7875,
      "Ġrepeated": 7876,
      "Ġinstallation": 7877,
      "Ġtrespasses": 7878,
      "Ġsteadfast": 7879,
      "Ġabstinence": 7880,
      "Ġdelicacies": 7881,
      "Remember": 7882,
      "Ġtolerate": 7883,
      "ĠBilÊ¹hah": 7884,
      "Ġpolluted": 7885,
      "Ġforbid": 7886,
      "Ġexclusive": 7887,
      "Ġexperience": 7888,
      "ĠReÊ¹zin": 7889,
      "Ġequipment": 7890,
      "ĠMilÊ¹cah": 7891,
      "Rabbi": 7892,
      "haÊ¹math": 7893,
      "ĠMichÊ¹m": 7894,
      "ĠZacÊ¹c": 7895,
      "erÊ¹oth": 7896,
      "ĠAiÊ¹ja": 7897,
      "Ġrooster": 7898,
      "Ġfootsteps": 7899,
      "Jesus": 7900,
      "balÊ¹lat": 7901,
      "gripÊ¹pa": 7902,
      "tophÊ¹a": 7903,
      "Ġlament": 7904,
      "ĠThomas": 7905,
      "Ġoutskirts": 7906,
      "ĠLeÊ¹bo": 7907,
      "Ġappendage": 7908,
      "ĠNaziriteship": 7909,
      "30": 7910,
      "Bu": 7911,
      "EÊ¹": 7912,
      "Job": 7913,
      "King": 7914,
      "Man": 7915,
      "Turn": 7916,
      "Those": 7917,
      "Un": 7918,
      "aign": 7919,
      "bing": 7920,
      "bÊ¹o": 7921,
      "di": 7922,
      "eld": 7923,
      "gan": 7924,
      "gad": 7925,
      "gment": 7926,
      "iod": 7927,
      "long": 7928,
      "lowing": 7929,
      "laÊ¹iah": 7930,
      "mus": 7931,
      "moÊ¹": 7932,
      "mite": 7933,
      "neÊ¹": 7934,
      "pho": 7935,
      "pach": 7936,
      "possessed": 7937,
      "sal": 7938,
      "van": 7939,
      "yl": 7940,
      "Ġostri": 7941,
      "iners": 7942,
      "inÊ¹ne": 7943,
      "Ġsus": 7944,
      "Ġsower": 7945,
      "ĠhoÊ¹mer": 7946,
      "Ġbaked": 7947,
      "Ġfring": 7948,
      "Ġfitting": 7949,
      "Ġfixed": 7950,
      "Ġtos": 7951,
      "Ġtoiled": 7952,
      "Ġmut": 7953,
      "Ġmul": 7954,
      "Ġcri": 7955,
      "Ġcasting": 7956,
      "Ġcases": 7957,
      "Ġdi": 7958,
      "Ġded": 7959,
      "Ġdense": 7960,
      "Ġdict": 7961,
      "Ġdung": 7962,
      "Ġdyed": 7963,
      "Ê¹vah": 7964,
      "Ġthic": 7965,
      "hol": 7966,
      "Ġlake": 7967,
      "Ġlair": 7968,
      "ommand": 7969,
      "Ġwield": 7970,
      "Ġbef": 7971,
      "asps": 7972,
      "ĠAle": 7973,
      "ĠArab": 7974,
      "ĠTaÊ¹bor": 7975,
      "ĠTuÊ¹bal": 7976,
      "ĠJeth": 7977,
      "Ġeg": 7978,
      "Ġere": 7979,
      "amÊ¹re": 7980,
      "Ġrever": 7981,
      "ode": 7982,
      "irÊ¹a": 7983,
      "Ġnoticed": 7984,
      "ĠSib": 7985,
      "herÊ¹e": 7986,
      "raÊ¹": 7987,
      "Ġweigh": 7988,
      "ĠGather": 7989,
      "ĠGaÊ¹al": 7990,
      "ĠBig": 7991,
      "ĠBook": 7992,
      "Ġstall": 7993,
      "Ġstern": 7994,
      "Ġstakes": 7995,
      "Ġstench": 7996,
      "thiÊ¹ah": 7997,
      "rophe": 7998,
      "Ġsever": 7999
    },
    "merges": [
      [
        "Ġ",
        "t"
      ],
      [
        "h",
        "e"
      ],
      [
        "Ġ",
        "a"
      ],
      [
        "Ġt",
        "he"
      ],
      [
        "Ġ",
        "w"
      ],
      [
        "Ġ",
        "o"
      ],
      [
        "i",
        "n"
      ],
      [
        "n",
        "d"
      ],
      [
        "Ġ",
        "s"
      ],
      [
        "o",
        "u"
      ],
      [
        "r",
        "e"
      ],
      [
        "Ġ",
        "h"
      ],
      [
        "Ġo",
        "f"
      ],
      [
        "Ġ",
        "b"
      ],
      [
        "Ġa",
        "nd"
      ],
      [
        "i",
        "s"
      ],
      [
        "Ġ",
        "f"
      ],
      [
        "e",
        "r"
      ],
      [
        "Ġt",
        "o"
      ],
      [
        "Ġ",
        "m"
      ],
      [
        "a",
        "t"
      ],
      [
        "l",
        "l"
      ],
      [
        "i",
        "t"
      ],
      [
        "e",
        "s"
      ],
      [
        "in",
        "g"
      ],
      [
        "o",
        "n"
      ],
      [
        "Ġ",
        "y"
      ],
      [
        "o",
        "r"
      ],
      [
        "â",
        "Ģ"
      ],
      [
        "Ġy",
        "ou"
      ],
      [
        "Ġ",
        "c"
      ],
      [
        "Ġ",
        "d"
      ],
      [
        "e",
        "d"
      ],
      [
        "e",
        "n"
      ],
      [
        "Ê",
        "¹"
      ],
      [
        "Ġ",
        "p"
      ],
      [
        "Ġt",
        "h"
      ],
      [
        "Ġ",
        "in"
      ],
      [
        "a",
        "r"
      ],
      [
        "h",
        "o"
      ],
      [
        "Ġ",
        "n"
      ],
      [
        "a",
        "n"
      ],
      [
        "Ġ",
        "l"
      ],
      [
        "Ġ",
        "he"
      ],
      [
        "o",
        "m"
      ],
      [
        "Ġ",
        "I"
      ],
      [
        "Ġ",
        "J"
      ],
      [
        "Ġw",
        "i"
      ],
      [
        "Ġb",
        "e"
      ],
      [
        "Â",
        "·"
      ],
      [
        "a",
        "s"
      ],
      [
        ".",
        "+"
      ],
      [
        "Ġ",
        "g"
      ],
      [
        "a",
        "h"
      ],
      [
        "Ġwi",
        "ll"
      ],
      [
        "Ġ",
        "A"
      ],
      [
        "s",
        "e"
      ],
      [
        "o",
        "t"
      ],
      [
        "u",
        "t"
      ],
      [
        "v",
        "e"
      ],
      [
        "a",
        "y"
      ],
      [
        "l",
        "e"
      ],
      [
        "i",
        "d"
      ],
      [
        "Ġ",
        "âĢ"
      ],
      [
        "Ġ",
        "T"
      ],
      [
        "i",
        "m"
      ],
      [
        "Ġh",
        "a"
      ],
      [
        "Ġo",
        "n"
      ],
      [
        "o",
        "w"
      ],
      [
        ",",
        "+"
      ],
      [
        "ĠJ",
        "e"
      ],
      [
        "Ġ",
        "is"
      ],
      [
        "Ġ",
        "e"
      ],
      [
        "Ġf",
        "or"
      ],
      [
        "Ġth",
        "at"
      ],
      [
        "it",
        "h"
      ],
      [
        "ĠâĢ",
        "ľ"
      ],
      [
        "s",
        "t"
      ],
      [
        "a",
        "m"
      ],
      [
        "Ġ",
        "re"
      ],
      [
        "Ġh",
        "is"
      ],
      [
        "o",
        "d"
      ],
      [
        "Ġ",
        "u"
      ],
      [
        "v",
        "ah"
      ],
      [
        "ho",
        "vah"
      ],
      [
        "Ġyou",
        "r"
      ],
      [
        "i",
        "r"
      ],
      [
        "ĠT",
        "he"
      ],
      [
        "ĠJe",
        "hovah"
      ],
      [
        "g",
        "h"
      ],
      [
        "Ġn",
        "ot"
      ],
      [
        "l",
        "d"
      ],
      [
        "Ġw",
        "ith"
      ],
      [
        "Ġ",
        "S"
      ],
      [
        "a",
        "c"
      ],
      [
        "Ġ",
        "it"
      ],
      [
        "he",
        "r"
      ],
      [
        "en",
        "t"
      ],
      [
        "r",
        "i"
      ],
      [
        "k",
        "e"
      ],
      [
        "âĢ",
        "Ŀ"
      ],
      [
        "v",
        "er"
      ],
      [
        "Ġh",
        "im"
      ],
      [
        "r",
        "a"
      ],
      [
        "i",
        "on"
      ],
      [
        "Ġthe",
        "m"
      ],
      [
        "Ġw",
        "e"
      ],
      [
        "Ġthe",
        "y"
      ],
      [
        "r",
        "om"
      ],
      [
        "e",
        "t"
      ],
      [
        "Ġ",
        "G"
      ],
      [
        "Ġw",
        "ho"
      ],
      [
        "a",
        "l"
      ],
      [
        "u",
        "r"
      ],
      [
        "e",
        "l"
      ],
      [
        "Ġm",
        "e"
      ],
      [
        "ĠA",
        "nd"
      ],
      [
        "a",
        "d"
      ],
      [
        "Ġa",
        "s"
      ],
      [
        "gh",
        "t"
      ],
      [
        "Ġf",
        "rom"
      ],
      [
        "Ġs",
        "a"
      ],
      [
        "Ġa",
        "ll"
      ],
      [
        "Ġ",
        "H"
      ],
      [
        "Ġ",
        "k"
      ],
      [
        "Ġ",
        "B"
      ],
      [
        "Ġw",
        "as"
      ],
      [
        "Ġs",
        "t"
      ],
      [
        "t",
        "h"
      ],
      [
        "Ġm",
        "y"
      ],
      [
        "c",
        "e"
      ],
      [
        "Ġa",
        "n"
      ],
      [
        "a",
        "nd"
      ],
      [
        "Ġha",
        "ve"
      ],
      [
        "l",
        "y"
      ],
      [
        "r",
        "o"
      ],
      [
        ".",
        "âĢĿ"
      ],
      [
        "a",
        "in"
      ],
      [
        "Ġa",
        "re"
      ],
      [
        "a",
        "u"
      ],
      [
        "âĢ",
        "Ļ"
      ],
      [
        "ĠG",
        "od"
      ],
      [
        "i",
        "l"
      ],
      [
        "Ġw",
        "h"
      ],
      [
        "o",
        "re"
      ],
      [
        "Ġs",
        "e"
      ],
      [
        "Ġs",
        "on"
      ],
      [
        "Ġsa",
        "id"
      ],
      [
        "Ġthe",
        "ir"
      ],
      [
        "Ġl",
        "i"
      ],
      [
        "č",
        "Ċ"
      ],
      [
        "Ġc",
        "om"
      ],
      [
        "es",
        "s"
      ],
      [
        "Ġon",
        "e"
      ],
      [
        "or",
        "d"
      ],
      [
        "Ġ",
        "M"
      ],
      [
        "Ġd",
        "e"
      ],
      [
        "am",
        "e"
      ],
      [
        "Ġbe",
        "c"
      ],
      [
        "o",
        "p"
      ],
      [
        "Ġu",
        "p"
      ],
      [
        "es",
        "t"
      ],
      [
        "Ġo",
        "ut"
      ],
      [
        "ĠI",
        "s"
      ],
      [
        "Ġd",
        "o"
      ],
      [
        "u",
        "s"
      ],
      [
        "Ġwe",
        "re"
      ],
      [
        "Ġg",
        "o"
      ],
      [
        "i",
        "c"
      ],
      [
        "Ġth",
        "is"
      ],
      [
        "v",
        "en"
      ],
      [
        "Ġ",
        "W"
      ],
      [
        "Ġm",
        "an"
      ],
      [
        "ĠS",
        "o"
      ],
      [
        "t",
        "er"
      ],
      [
        "he",
        "n"
      ],
      [
        "on",
        "g"
      ],
      [
        "Ġp",
        "e"
      ],
      [
        "ou",
        "ld"
      ],
      [
        "Ġs",
        "p"
      ],
      [
        "Ġ",
        "F"
      ],
      [
        "Ġ",
        "C"
      ],
      [
        "Ġs",
        "ay"
      ],
      [
        "an",
        "t"
      ],
      [
        "Ġb",
        "y"
      ],
      [
        "Ġ",
        "L"
      ],
      [
        "r",
        "u"
      ],
      [
        "Ġb",
        "r"
      ],
      [
        "Ġk",
        "ing"
      ],
      [
        "Ġ",
        "E"
      ],
      [
        "Ġa",
        "l"
      ],
      [
        "ĠH",
        "e"
      ],
      [
        "Ġs",
        "h"
      ],
      [
        "ra",
        "el"
      ],
      [
        "re",
        "d"
      ],
      [
        "ĠIs",
        "rael"
      ],
      [
        "er",
        "s"
      ],
      [
        "Ġh",
        "as"
      ],
      [
        "at",
        "ion"
      ],
      [
        "Ġha",
        "d"
      ],
      [
        "a",
        "b"
      ],
      [
        "Ġpe",
        "op"
      ],
      [
        "u",
        "st"
      ],
      [
        "a",
        "Ê¹"
      ],
      [
        "Ġa",
        "m"
      ],
      [
        "ĠB",
        "ut"
      ],
      [
        "a",
        "ll"
      ],
      [
        "Ġa",
        "t"
      ],
      [
        "a",
        "ke"
      ],
      [
        "Ġd",
        "ay"
      ],
      [
        "on",
        "e"
      ],
      [
        "i",
        "Ê¹"
      ],
      [
        "Ġ",
        "O"
      ],
      [
        "o",
        "k"
      ],
      [
        "p",
        "t"
      ],
      [
        "c",
        "t"
      ],
      [
        "Ġh",
        "ou"
      ],
      [
        "ar",
        "d"
      ],
      [
        "Ġwh",
        "at"
      ],
      [
        "Ġpeop",
        "le"
      ],
      [
        "Ġ",
        "D"
      ],
      [
        "Y",
        "ou"
      ],
      [
        "n",
        "t"
      ],
      [
        "re",
        "s"
      ],
      [
        "Ġa",
        "g"
      ],
      [
        "ow",
        "n"
      ],
      [
        "a",
        "k"
      ],
      [
        "o",
        "se"
      ],
      [
        "e",
        "ar"
      ],
      [
        "Ġof",
        "f"
      ],
      [
        "au",
        "se"
      ],
      [
        "c",
        "h"
      ],
      [
        "at",
        "her"
      ],
      [
        "Ġ",
        "j"
      ],
      [
        "i",
        "f"
      ],
      [
        "Ġs",
        "o"
      ],
      [
        "Ġl",
        "o"
      ],
      [
        "Ġ",
        "N"
      ],
      [
        "Ġb",
        "ut"
      ],
      [
        "Ġag",
        "ain"
      ],
      [
        "om",
        "e"
      ],
      [
        "Ġl",
        "and"
      ],
      [
        "Ġhou",
        "se"
      ],
      [
        "Ġ",
        "P"
      ],
      [
        "Ġc",
        "on"
      ],
      [
        "r",
        "ou"
      ],
      [
        "ing",
        "s"
      ],
      [
        "i",
        "ve"
      ],
      [
        "ac",
        "e"
      ],
      [
        "Ġin",
        "t"
      ],
      [
        "ĠF",
        "or"
      ],
      [
        "is",
        "t"
      ],
      [
        "o",
        "s"
      ],
      [
        "*",
        "+"
      ],
      [
        "Ġp",
        "l"
      ],
      [
        "a",
        "v"
      ],
      [
        "ĠâĢ",
        "ĺ"
      ],
      [
        "Ġo",
        "r"
      ],
      [
        "Ġthe",
        "re"
      ],
      [
        "u",
        "l"
      ],
      [
        "i",
        "e"
      ],
      [
        "u",
        "d"
      ],
      [
        "ĠThe",
        "n"
      ],
      [
        "Ġhe",
        "r"
      ],
      [
        "n",
        "ess"
      ],
      [
        "p",
        "p"
      ],
      [
        "g",
        "e"
      ],
      [
        "se",
        "l"
      ],
      [
        "ot",
        "her"
      ],
      [
        "f",
        "ore"
      ],
      [
        "ar",
        "t"
      ],
      [
        "i",
        "es"
      ],
      [
        "ou",
        "s"
      ],
      [
        "Ġa",
        "b"
      ],
      [
        ".âĢĿ",
        "+"
      ],
      [
        "Ġint",
        "o"
      ],
      [
        "it",
        "y"
      ],
      [
        "e",
        "p"
      ],
      [
        "Ġha",
        "nd"
      ],
      [
        "Ġu",
        "s"
      ],
      [
        "Ġd",
        "own"
      ],
      [
        "Ġo",
        "ver"
      ],
      [
        "it",
        "es"
      ],
      [
        ";",
        "+"
      ],
      [
        "Ġ",
        "You"
      ],
      [
        "Ġn",
        "o"
      ],
      [
        "Ġth",
        "ose"
      ],
      [
        "ou",
        "t"
      ],
      [
        "Ġbec",
        "ause"
      ],
      [
        "Ġson",
        "s"
      ],
      [
        "Ġ",
        "v"
      ],
      [
        "Ġk",
        "n"
      ],
      [
        "Ġagain",
        "st"
      ],
      [
        "i",
        "ght"
      ],
      [
        "ĠThe",
        "y"
      ],
      [
        "at",
        "h"
      ],
      [
        "Ġc",
        "h"
      ],
      [
        "ur",
        "n"
      ],
      [
        "i",
        "ll"
      ],
      [
        "Ġ",
        "1"
      ],
      [
        "i",
        "g"
      ],
      [
        "m",
        "ent"
      ],
      [
        "Ġm",
        "en"
      ],
      [
        "c",
        "k"
      ],
      [
        "Ġp",
        "ro"
      ],
      [
        "ver",
        "y"
      ],
      [
        "Ġsh",
        "ould"
      ],
      [
        "as",
        "t"
      ],
      [
        "Ġ",
        "ri"
      ],
      [
        "Ġd",
        "id"
      ],
      [
        "Ġs",
        "er"
      ],
      [
        "e",
        "ll"
      ],
      [
        "Ġs",
        "he"
      ],
      [
        "f",
        "e"
      ],
      [
        "s",
        "o"
      ],
      [
        "Ġe",
        "x"
      ],
      [
        "Ġli",
        "ke"
      ],
      [
        "e",
        "m"
      ],
      [
        "Ġw",
        "hen"
      ],
      [
        "re",
        "at"
      ],
      [
        "Ġit",
        "s"
      ],
      [
        "Ê¹",
        "a"
      ],
      [
        "Ġbe",
        "fore"
      ],
      [
        "v",
        "es"
      ],
      [
        "l",
        "a"
      ],
      [
        "u",
        "m"
      ],
      [
        "w",
        "ay"
      ],
      [
        "ad",
        "e"
      ],
      [
        "Ġcom",
        "e"
      ],
      [
        "Ġm",
        "ay"
      ],
      [
        "Ġc",
        "ame"
      ],
      [
        "in",
        "d"
      ],
      [
        "Ġa",
        "r"
      ],
      [
        "in",
        "e"
      ],
      [
        "Ġm",
        "ade"
      ],
      [
        "Ġw",
        "or"
      ],
      [
        "p",
        "h"
      ],
      [
        "i",
        "ce"
      ],
      [
        "Ġn",
        "e"
      ],
      [
        "e",
        "Ê¹"
      ],
      [
        "Ġ",
        "K"
      ],
      [
        "v",
        "ed"
      ],
      [
        "Ġth",
        "ings"
      ],
      [
        "Ġe",
        "ar"
      ],
      [
        "Ġkn",
        "ow"
      ],
      [
        "id",
        "e"
      ],
      [
        "ac",
        "h"
      ],
      [
        "T",
        "E"
      ],
      [
        "A",
        "P"
      ],
      [
        "B",
        "O"
      ],
      [
        "H",
        "AP"
      ],
      [
        "O",
        "K"
      ],
      [
        "ĠC",
        "HAP"
      ],
      [
        "TE",
        "R"
      ],
      [
        "BO",
        "OK"
      ],
      [
        "ĠCHAP",
        "TER"
      ],
      [
        "f",
        "ter"
      ],
      [
        "Ġo",
        "ur"
      ],
      [
        "Ġw",
        "ent"
      ],
      [
        "Ġb",
        "l"
      ],
      [
        "ig",
        "n"
      ],
      [
        ",",
        "*"
      ],
      [
        "Ġs",
        "u"
      ],
      [
        "at",
        "e"
      ],
      [
        "Ġd",
        "is"
      ],
      [
        "s",
        "h"
      ],
      [
        "t",
        "her"
      ],
      [
        "he",
        "d"
      ],
      [
        "a",
        "le"
      ],
      [
        "o",
        "od"
      ],
      [
        "ou",
        "r"
      ],
      [
        "o",
        "Ê¹"
      ],
      [
        "Ġw",
        "ord"
      ],
      [
        "Ġf",
        "ather"
      ],
      [
        "av",
        "id"
      ],
      [
        "Ġu",
        "n"
      ],
      [
        "Ġp",
        "r"
      ],
      [
        "ĠD",
        "avid"
      ],
      [
        "Ġoff",
        "er"
      ],
      [
        "l",
        "es"
      ],
      [
        "Ġ",
        "ke"
      ],
      [
        "Ġan",
        "y"
      ],
      [
        "Ġri",
        "ght"
      ],
      [
        "Ġl",
        "e"
      ],
      [
        "w",
        "n"
      ],
      [
        "Ġp",
        "ut"
      ],
      [
        "ou",
        "nd"
      ],
      [
        "Ġthe",
        "n"
      ],
      [
        "is",
        "e"
      ],
      [
        "Ġh",
        "o"
      ],
      [
        "Ġa",
        "way"
      ],
      [
        "i",
        "re"
      ],
      [
        "Ġp",
        "ri"
      ],
      [
        "Ġcom",
        "m"
      ],
      [
        "Ġal",
        "so"
      ],
      [
        "ou",
        "nt"
      ],
      [
        "Ġa",
        "c"
      ],
      [
        "ĠW",
        "hen"
      ],
      [
        "sel",
        "f"
      ],
      [
        ".",
        "âĢĻ"
      ],
      [
        "a",
        "ve"
      ],
      [
        "Ġ",
        "r"
      ],
      [
        "ĠT",
        "h"
      ],
      [
        "Ġc",
        "o"
      ],
      [
        "Ġser",
        "v"
      ],
      [
        "Ġm",
        "ake"
      ],
      [
        "Ġ",
        "R"
      ],
      [
        "Ġt",
        "im"
      ],
      [
        "Ġf",
        "ore"
      ],
      [
        "Ġpl",
        "ace"
      ],
      [
        "or",
        "n"
      ],
      [
        "i",
        "ed"
      ],
      [
        "ĠJ",
        "es"
      ],
      [
        "r",
        "y"
      ],
      [
        "ĠJ",
        "er"
      ],
      [
        "q",
        "u"
      ],
      [
        "iÊ¹",
        "ah"
      ],
      [
        "n",
        "g"
      ],
      [
        "Ġthe",
        "se"
      ],
      [
        "Ġm",
        "ust"
      ],
      [
        "ation",
        "s"
      ],
      [
        "Ġpri",
        "est"
      ],
      [
        "0",
        "0"
      ],
      [
        "Ġe",
        "very"
      ],
      [
        "Ġbe",
        "en"
      ],
      [
        "Ġ",
        "if"
      ],
      [
        "Ġg",
        "reat"
      ],
      [
        "Ġsay",
        "ing"
      ],
      [
        "Ġab",
        "out"
      ],
      [
        "Ġbr",
        "other"
      ],
      [
        "e",
        "red"
      ],
      [
        "Ġs",
        "in"
      ],
      [
        "Ġse",
        "e"
      ],
      [
        "Ġw",
        "ould"
      ],
      [
        "ĠJes",
        "us"
      ],
      [
        "ou",
        "ght"
      ],
      [
        "Ġb",
        "u"
      ],
      [
        "Ġbec",
        "ome"
      ],
      [
        "e",
        "ver"
      ],
      [
        "Ġear",
        "th"
      ],
      [
        "t",
        "ed"
      ],
      [
        "Ġ",
        "2"
      ],
      [
        "he",
        "re"
      ],
      [
        "?",
        "âĢĿ"
      ],
      [
        "ant",
        "s"
      ],
      [
        "Ê¹",
        "i"
      ],
      [
        "Ġy",
        "ear"
      ],
      [
        "Ġre",
        "p"
      ],
      [
        "o",
        "l"
      ],
      [
        "Ġhe",
        "art"
      ],
      [
        "Ġw",
        "at"
      ],
      [
        "nd",
        "er"
      ],
      [
        "Ġs",
        "w"
      ],
      [
        "ĠJ",
        "ud"
      ],
      [
        "Ġre",
        "m"
      ],
      [
        "ic",
        "h"
      ],
      [
        "i",
        "p"
      ],
      [
        "v",
        "ing"
      ],
      [
        "Ġ",
        "Z"
      ],
      [
        "os",
        "es"
      ],
      [
        "Ġam",
        "ong"
      ],
      [
        "an",
        "ce"
      ],
      [
        "Ġj",
        "ust"
      ],
      [
        "ac",
        "k"
      ],
      [
        "an",
        "s"
      ],
      [
        "Ġw",
        "ay"
      ],
      [
        "Ġsp",
        "e"
      ],
      [
        "Ġ",
        "ro"
      ],
      [
        "Ġo",
        "wn"
      ],
      [
        "Ġg",
        "ive"
      ],
      [
        "au",
        "ght"
      ],
      [
        "ĠM",
        "oses"
      ],
      [
        "Ġc",
        "ity"
      ],
      [
        "is",
        "h"
      ],
      [
        "Ê¹",
        "e"
      ],
      [
        "rou",
        "gh"
      ],
      [
        "Ġl",
        "et"
      ],
      [
        "ĠJud",
        "ah"
      ],
      [
        "rou",
        "nd"
      ],
      [
        "Ġn",
        "ame"
      ],
      [
        "a",
        "ven"
      ],
      [
        "i",
        "ld"
      ],
      [
        "re",
        "e"
      ],
      [
        "us",
        "ale"
      ],
      [
        "usale",
        "m"
      ],
      [
        "ot",
        "h"
      ],
      [
        "Ġc",
        "all"
      ],
      [
        "ĠJer",
        "usalem"
      ],
      [
        "Ġwh",
        "ich"
      ],
      [
        "Ġd",
        "es"
      ],
      [
        "Ġgo",
        "od"
      ],
      [
        "Ġt",
        "ake"
      ],
      [
        "p",
        "he"
      ],
      [
        "Ġde",
        "c"
      ],
      [
        "Ġth",
        "rough"
      ],
      [
        "Ġre",
        "s"
      ],
      [
        "Ġac",
        "c"
      ],
      [
        "i",
        "le"
      ],
      [
        "Ġg",
        "i"
      ],
      [
        "ĠI",
        "n"
      ],
      [
        "Ġar",
        "m"
      ],
      [
        "f",
        "ul"
      ],
      [
        "Ġ",
        "en"
      ],
      [
        "Ġt",
        "ru"
      ],
      [
        "Ġf",
        "l"
      ],
      [
        "ĠE",
        "g"
      ],
      [
        "m",
        "on"
      ],
      [
        "Ġbr",
        "ing"
      ],
      [
        "Ġo",
        "ther"
      ],
      [
        "Ġday",
        "s"
      ],
      [
        ".",
        "*"
      ],
      [
        "ĠP",
        "h"
      ],
      [
        "t",
        "s"
      ],
      [
        "u",
        "re"
      ],
      [
        "Ġtim",
        "e"
      ],
      [
        "ĠK",
        "ing"
      ],
      [
        "Ġa",
        "pp"
      ],
      [
        "Ġbec",
        "ame"
      ],
      [
        "e",
        "ous"
      ],
      [
        "y",
        "pt"
      ],
      [
        "ĠEg",
        "ypt"
      ],
      [
        "Ġcomm",
        "and"
      ],
      [
        "Ġt",
        "w"
      ],
      [
        "Ġbe",
        "g"
      ],
      [
        "u",
        "e"
      ],
      [
        "Ġoffer",
        "ing"
      ],
      [
        "Ġcon",
        "t"
      ],
      [
        "ri",
        "b"
      ],
      [
        "Ġho",
        "ly"
      ],
      [
        "a",
        "re"
      ],
      [
        "Ġc",
        "l"
      ],
      [
        "Ġe",
        "at"
      ],
      [
        "re",
        "ad"
      ],
      [
        "Ġhe",
        "aven"
      ],
      [
        "Ġe",
        "y"
      ],
      [
        "Ġ",
        "ent"
      ],
      [
        "Ġa",
        "fter"
      ],
      [
        "it",
        "e"
      ],
      [
        "d",
        "om"
      ],
      [
        "Ġsay",
        "s"
      ],
      [
        "as",
        "e"
      ],
      [
        "Ġbr",
        "ought"
      ],
      [
        "ĠE",
        "Ê¹"
      ],
      [
        ".",
        "*+"
      ],
      [
        "Ġwor",
        "k"
      ],
      [
        "n",
        "e"
      ],
      [
        "Ġn",
        "ow"
      ],
      [
        "Ġw",
        "om"
      ],
      [
        "?",
        "+"
      ],
      [
        "ĠL",
        "ord"
      ],
      [
        "ĠA",
        "s"
      ],
      [
        "Ġf",
        "o"
      ],
      [
        "Ġto",
        "ok"
      ],
      [
        "u",
        "b"
      ],
      [
        "Ġf",
        "a"
      ],
      [
        "Ġspe",
        "ak"
      ],
      [
        "Ġf",
        "ir"
      ],
      [
        "Ġright",
        "eous"
      ],
      [
        "Ġc",
        "an"
      ],
      [
        "a",
        "g"
      ],
      [
        "f",
        "t"
      ],
      [
        "h",
        "ing"
      ],
      [
        "Ê¹",
        "t"
      ],
      [
        "ĠC",
        "h"
      ],
      [
        "Ġs",
        "ent"
      ],
      [
        "r",
        "ow"
      ],
      [
        "Ġtw",
        "o"
      ],
      [
        "or",
        "t"
      ],
      [
        "au",
        "l"
      ],
      [
        "ĠN",
        "ow"
      ],
      [
        "Ġth",
        "an"
      ],
      [
        "ment",
        "s"
      ],
      [
        "Ġw",
        "r"
      ],
      [
        "l",
        "ed"
      ],
      [
        "at",
        "ed"
      ],
[...]
