#version: 0.2
Ġ t
h e
Ġ a
Ġt he
Ġ w
Ġ o
i n
n d
Ġ s
o u
r e
Ġ h
Ġo f
Ġ b
Ġa nd
i s
Ġ f
e r
Ġt o
Ġ m
a t
l l
i t
e s
in g
o n
Ġ y
o r
â Ģ
Ġy ou
Ġ c
Ġ d
e d
e n
Ê ¹
Ġ p
Ġt h
Ġ in
a r
h o
Ġ n
a n
Ġ l
Ġ he
o m
Ġ I
Ġ J
Ġw i
Ġb e
Â ·
a s
. +
Ġ g
a h
Ġwi ll
Ġ A
s e
o t
u t
v e
a y
l e
i d
Ġ âĢ
Ġ T
i m
Ġh a
Ġo n
o w
, +
ĠJ e
Ġ is
Ġ e
Ġf or
Ġth at
it h
ĠâĢ ľ
s t
a m
Ġ re
Ġh is
o d
Ġ u
v ah
ho vah
Ġyou r
i r
ĠT he
ĠJe hovah
g h
Ġn ot
l d
Ġw ith
Ġ S
a c
Ġ it
he r
en t
r i
k e
âĢ Ŀ
v er
Ġh im
r a
i on
Ġthe m
Ġw e
Ġthe y
r om
e t
Ġ G
Ġw ho
a l
u r
e l
Ġm e
ĠA nd
a d
Ġa s
gh t
Ġf rom
Ġs a
Ġa ll
Ġ H
Ġ k
Ġ B
Ġw as
Ġs t
t h
Ġm y
c e
Ġa n
a nd
Ġha ve
l y
r o
. âĢĿ
a in
Ġa re
a u
âĢ Ļ
ĠG od
i l
Ġw h
o re
Ġs e
Ġs on
Ġsa id
Ġthe ir
Ġl i
č Ċ
Ġc om
es s
Ġon e
or d
Ġ M
Ġd e
am e
Ġbe c
o p
Ġu p
es t
Ġo ut
ĠI s
Ġd o
u s
Ġwe re
Ġg o
i c
Ġth is
v en
Ġ W
Ġm an
ĠS o
t er
he n
on g
Ġp e
ou ld
Ġs p
Ġ F
Ġ C
Ġs ay
an t
Ġb y
Ġ L
r u
Ġb r
Ġk ing
Ġ E
Ġa l
ĠH e
Ġs h
ra el
re d
ĠIs rael
er s
Ġh as
at ion
Ġha d
a b
Ġpe op
u st
a Ê¹
Ġa m
ĠB ut
a ll
Ġa t
a ke
Ġd ay
on e
i Ê¹
Ġ O
o k
p t
c t
Ġh ou
ar d
Ġwh at
Ġpeop le
Ġ D
Y ou
n t
re s
Ġa g
ow n
a k
o se
e ar
Ġof f
au se
c h
at her
Ġ j
i f
Ġs o
Ġl o
Ġ N
Ġb ut
Ġag ain
om e
Ġl and
Ġhou se
Ġ P
Ġc on
r ou
ing s
i ve
ac e
Ġin t
ĠF or
is t
o s
* +
Ġp l
a v
ĠâĢ ĺ
Ġo r
Ġthe re
u l
i e
u d
ĠThe n
Ġhe r
n ess
p p
g e
se l
ot her
f ore
ar t
i es
ou s
Ġa b
.âĢĿ +
Ġint o
it y
e p
Ġha nd
Ġu s
Ġd own
Ġo ver
it es
; +
Ġ You
Ġn o
Ġth ose
ou t
Ġbec ause
Ġson s
Ġ v
Ġk n
Ġagain st
i ght
ĠThe y
at h
Ġc h
ur n
i ll
Ġ 1
i g
m ent
Ġm en
c k
Ġp ro
ver y
Ġsh ould
as t
Ġ ri
Ġd id
Ġs er
e ll
Ġs he
f e
s o
Ġe x
Ġli ke
e m
Ġw hen
re at
Ġit s
Ê¹ a
Ġbe fore
v es
l a
u m
w ay
ad e
Ġcom e
Ġm ay
Ġc ame
in d
Ġa r
in e
Ġm ade
Ġw or
p h
i ce
Ġn e
e Ê¹
Ġ K
v ed
Ġth ings
Ġe ar
Ġkn ow
id e
ac h
T E
A P
B O
H AP
O K
ĠC HAP
TE R
BO OK
ĠCHAP TER
f ter
Ġo ur
Ġw ent
Ġb l
ig n
, *
Ġs u
at e
Ġd is
s h
t her
he d
a le
o od
ou r
o Ê¹
Ġw ord
Ġf ather
av id
Ġu n
Ġp r
ĠD avid
Ġoff er
l es
Ġ ke
Ġan y
Ġri ght
Ġl e
w n
Ġp ut
ou nd
Ġthe n
is e
Ġh o
Ġa way
i re
Ġp ri
Ġcom m
Ġal so
ou nt
Ġa c
ĠW hen
sel f
. âĢĻ
a ve
Ġ r
ĠT h
Ġc o
Ġser v
Ġm ake
Ġ R
Ġt im
Ġf ore
Ġpl ace
or n
i ed
ĠJ es
r y
ĠJ er
q u
iÊ¹ ah
n g
Ġthe se
Ġm ust
ation s
Ġpri est
0 0
Ġe very
Ġbe en
Ġ if
Ġg reat
Ġsay ing
Ġab out
Ġbr other
e red
Ġs in
Ġse e
Ġw ould
ĠJes us
ou ght
Ġb u
Ġbec ome
e ver
Ġear th
t ed
Ġ 2
he re
? âĢĿ
ant s
Ê¹ i
Ġy ear
Ġre p
o l
Ġhe art
Ġw at
nd er
Ġs w
ĠJ ud
Ġre m
ic h
i p
v ing
Ġ Z
os es
Ġam ong
an ce
Ġj ust
ac k
an s
Ġw ay
Ġsp e
Ġ ro
Ġo wn
Ġg ive
au ght
ĠM oses
Ġc ity
is h
Ê¹ e
rou gh
Ġl et
ĠJud ah
rou nd
Ġn ame
a ven
i ld
re e
us ale
usale m
ot h
Ġc all
ĠJer usalem
Ġwh ich
Ġd es
Ġgo od
Ġt ake
p he
Ġde c
Ġth rough
Ġre s
Ġac c
i le
Ġg i
ĠI n
Ġar m
f ul
Ġ en
Ġt ru
Ġf l
ĠE g
m on
Ġbr ing
Ġo ther
Ġday s
. *
ĠP h
t s
u re
Ġtim e
ĠK ing
Ġa pp
Ġbec ame
e ous
y pt
ĠEg ypt
Ġcomm and
Ġt w
Ġbe g
u e
Ġoffer ing
Ġcon t
ri b
Ġho ly
a re
Ġc l
Ġe at
re ad
Ġhe aven
Ġe y
Ġ ent
Ġa fter
it e
d om
Ġsay s
as e
Ġbr ought
ĠE Ê¹
. *+
Ġwor k
n e
Ġn ow
Ġw om
? +
ĠL ord
ĠA s
Ġf o
Ġto ok
u b
Ġf a
Ġspe ak
Ġf ir
Ġright eous
Ġc an
a g
f t
h ing
Ê¹ t
ĠC h
Ġs ent
r ow
Ġtw o
or t
au l
ĠN ow
Ġth an
ment s
Ġw r
l ed
at ed
ĠI t
g et
Ġke ep
ir it
Ġs c
Ġsp irit
Ġt urn
Ġu nder
Ġey es
i gh
Ġs et
Ġpro phe
w ard
Ġg ave
Ġan g
am p
ĠS he
Ġs ac
Ġs ome
or y
Ġn ations
ri f
Ġre g
Ġj ud
o ok
Ġlo ok
Ġsa w
Ġb ack
Ġwho m
er n
it t
nt il
T he
as s
Ġg l
Ê¹ b
sel ves
Ġo b
Ġhe ard
ĠA t
Ġ ra
e ct
Ġbe l
Ġl ong
Ġw here
res s
Ġbeg an
Ġf e
in k
Ġhe ad
or s
Ġe ach
u ll
Ġlo ve
Ġdo es
Ġfir st
Ġp er
Ġ ru
Ġli fe
Ġt ent
Ġd aught
ab le
Ġbrother s
ĠThe re
Ġdec la
Ġp re
Ġf ire
Ġg ra
Ġre t
a w
it ies
Ġfa ith
Ġc ar
ar y
T h
r ist
Ġman y
o b
p le
i v
âĢ ĺ
Ġa d
Ġu ntil
ĠCh rist
ĠB e
o in
c es
Ġm ount
ĠâĢľ âĢĺ
Ġp le
Ġst and
Ġyou ng
ĠA b
al k
e nd
ĠIsrael ites
get her
Ġyear s
o ice
Ġ 4
ion s
ĠW h
m b
ck ed
p er
Ġde ath
Ġmount ain
Ġs ho
ĠH ow
Ġto gether
Ġtru e
Ġret urn
ĠI f
w s
âĢĿ +
a p
âĢ Ķ
Ġe nd
Ġe ven
Ġch ild
u n
Ġm ore
Ġhim self
ist en
Th is
Ġke pt
Ġgo ld
, *+
Ġre st
Ġor d
ĠTh is
l ess
Ġc ities
th ing
Ġw ar
ĠS h
Ġcall ed
Ġword s
W h
Ġf ound
Ġwat er
i z
Ġ im
is ed
Ê¹ n
le an
Ġgi ven
Ġsac rif
Ġs l
ou th
Ġwi cked
o h
Ġp res
ie ld
ĠD o
Ġn or
a ge
Ġst re
he s
Ġse c
Ġsw ord
Ġwi ld
al s
ord ing
t ar
Ġcont in
Ġat t
Ġbl ood
Ġheaven s
r ink
ou gh
o ke
h ab
Ġdis c
Ġ 3
Ġal tar
Ġpriest s
Ġs il
Ġon es
Ġan other
Ġw alk
Ġch ie
Ġd one
ĠA m
Ġup on
Ġt rib
ĠT o
Ġf am
ri ed
s w
Ġg u
Ġle ft
Ġm ight
l is
r on
Ġ qu
Ġwe ll
Ġwom an
ĠA Ê¹
o ck
en ce
b er
Ġserv ant
Ġre j
ow er
o y
at t
Ġan sw
Ġacc ording
Ġal ong
ĠL e
o st
r ah
Ġhe ar
Ġa ct
Ġrem ain
Ġt ak
ĠS aul
a z
Ġt re
Ġh ow
Ġserv ants
all y
Ġb ur
Ġwi fe
p en
il t
it s
Ġbe t
w ell
Ġas k
Ġhand s
d e
i b
Ê¹ o
ĠA fter
Ġt r
re n
Ġd rink
Ġd well
o nd
u res
ĠW ho
ĠL et
ĠA ll
os s
et h
u ed
Ġt ell
er r
Ġd est
el y
Ġg od
Ġl isten
Ġa round
a pt
Ġjud g
s ide
ac ob
Ġd ist
f ather
Ġst r
ct ion
ĠB aÊ¹
Ġord er
Ġde p
ĠPh ar
a i
ĠJ acob
ic k
Ġfore father
in es
ll ow
l on
Ġg ar
Ġdecla res
Ġa f
ill ed
e y
Ê¹ m
Ġun c
Ġh igh
Ġwh ile
Ġf ear
, âĢĻ
i ous
ut h
Ġse ven
Ġh ar
oÊ¹ ab
Ġf all
Ġf ield
ar on
Ġ very
ac t
Ġfo llow
Ġon ly
Ġp o
Ġth ree
Ġcom ing
y al
ve re
Ġp ass
od y
ĠA aron
t ain
Ġm ak
ar s
Ġcon s
Ġp ra
Ġen em
Ġm outh
o ve
Ġli ving
Ġforefather s
Ġv oice
Ġb ow
is ter
Ġin hab
ĠO ne
ĠTh at
Ġinhab it
Ġo ld
Ġn ight
! âĢĿ
Ġse nd
Ġp ower
00 0
h u
Ġm other
ĠHow ever
c ause
r ing
Ġo pen
Ġwh y
Ġsil ver
s es
Ġre f
ul t
Ġco ven
Ġdisc ip
Ġm on
Ġs ur
Ġking s
Ġarm ies
Ġse a
Ġany one
.âĢĻ +
Ġde v
Ġcoven ant
Ġp oss
Ġs ide
Ġto ward
ĠO n
Ġgl ory
s a
s ed
Ġ 5
Ġsho w
Ġchie f
Ġc amp
I f
w e
Ê¹ ah
Ġin c
Ġwith out
Ġdaught er
Ġchild ren
Ġmon th
Ġb ir
ĠPh i
Ġcommand ed
Ġg at
Ġw it
ic es
vere ign
Ġto ld
Ġde ad
Ġbl ess
ĠLe v
ĠA l
Ġgo ing
d s
as ter
l Ê¹o
z Ê¹
ĠA r
ĠSo vereign
m ed
Ġl aw
Ġbe ing
ab y
lis Ê¹t
Ġd ie
Ġnot hing
Ġme et
ĠSo lÊ¹o
s y
Ġin her
ce pt
Ġpe ace
Ġinher it
aÊ¹ n
aby lon
Ġin st
ĠM y
Ġs ame
Ġn ear
ĠB abylon
Ġgra in
Ġf ell
Ġg round
Ġli ght
n ing
Ġt em
ĠW ith
Ġf ace
Ġcom p
Ġch ar
er ness
Ġc ub
Ġwho le
Ġpr ay
Ġwild erness
Ġfore ver
Ġbur nt
Ġs m
Ġb ad
Ġb urn
ac es
Ġser ve
l iÊ¹
Ġst ru
Ġm id
Ġc ho
Ġp ers
Ġn am
an g
Ġthem selves
Ġre ce
Ġrighteous ness
Ġt e
Ġcon c
les h
Ġang el
Ġ U
Ġposs ess
Ġc ould
Ġcar ry
Ġhe l
Ġbe h
: +
Ġb re
Ġf ull
Ê¹a oh
oin ted
a red
s p
Ġf lesh
ĠYou r
Ê¹ l
ĠH is
Ġlo yal
Ġf ood
Ġ1 2
ar k
Ġf ar
st and
ĠPhar Ê¹aoh
y ard
Ġb read
Ġhe re
Ġc apt
Wh at
att le
Ġf ind
on es
ĠN e
Ġarm y
is hed
Ġbel ong
i al
t ing
l ic
?âĢĿ +
itt en
ĠLev ites
Ġstru ck
H e
Ġc our
ĠB eth
Ġs an
Ġs ound
Ġf our
Ġme ans
ce nd
ĠF ather
Ġbu ll
ĠThe se
Ġne ver
Ġwr itten
Ġwit ness
Ġst ri
Ġunc lean
! +
Ġg en
Ġpres ent
r am
re w
Ġd ied
Ġp art
Ġinherit ance
Ġg et
Ġsan ct
b le
c hed
Ġo il
Ġf ru
re g
om et
ose ph
Ġtak en
Ġpers on
Ġg r
Ġk ind
at ter
Ġth ir
ĠR e
Ġw all
Ġtrib e
Ġgod s
Ġf ine
Ġp rom
aÊ¹ m
ĠBe cause
Ġtem ple
l ied
Ġth r
ĠJ oseph
Ġg ate
ĠM ay
Ġdo ing
Ġle ad
Ġang er
Ġcontin ued
omet hing
Ġpr in
Ġwat ers
Ġstr ong
lisÊ¹t ines
ĠJe ws
ro y
Ġsp oke
av es
rah am
u ch
Ġli ve
Ġ (
Ġp ur
art ed
Ġdest roy
c hes
Ġs omething
Ġprophe t
Ġcub its
er tain
Ġy et
u Ê¹
ĠF rom
Ġbu ild
Ġdaught ers
Ġl ord
ent ion
Ġho ld
Ġfe et
Ġm ale
Ġc al
if ied
Ġturn ed
ĠAb raham
Ġdiscip les
Ġhel p
Ġw ine
Ġf av
Ġe v
Ġyour selves
Ġevery thing
we en
c ed
d ay
i x
k iÊ¹ah
re t
Ġc ong
Ġn um
Ġex p
p s
Ġw is
ho ld
Ġre l
Ġtim es
ur ing
ĠM a
Ġj oy
ĠAm Ê¹
D o
Ġc ut
en s
Ġyour self
Ġenem ies
A nd
Ġ 6
ri ght
Ġsu re
Ġbet ween
n ot
ou d
Ġb oth
Ġm ar
as h
l ing
Ġs k
Ġh um
Ġb o
on s
Ġple ase
Ġfav or
Ġcong reg
Ġha pp
Ġme as
Ġst ill
Ġgar ments
, âĢĿ
Ġs at
a il
o ved
f f
Ġw ind
Ġs la
Ġcan not
Ġprophe ts
ĠJ os
Ġsp ok
ut e
Ġre b
Ġre c
Ġoffer ings
Ġple as
Ġw he
Ġan im
Ġconc ern
Ġgen er
d en
i ke
i ly
Ġc row
Ġask ed
z ar
ĠB en
Ġpeop les
Ġfore ign
Ġinhabit ants
Ġspok en
Ġm orn
Ġany thing
Ġwom en
hu a
j ah
he red
Ġp ast
se mb
Ġse en
ĠJos hua
er c
Ġc r
Ġd et
Ġmorn ing
u red
Ġd iv
Ġspeak ing
k s
ver s
ĠL ook
ĠO r
Ġs ign
Ġres c
Ġc ur
Ġe ver
Ġmight y
Ġb ody
Ġto o
Ġd ark
Ġshe ep
v est
Ġt ra
ĠW e
all ey
one y
ast ing
Ġunder stand
Ġob s
Ġwis dom
Ġw ant
en se
Ġst one
Ġcom es
Ġking dom
Ġfru it
y ing
Ê¹ d
le e
Ġansw ered
u p
is ion
at er
ĠN o
Ġpra ise
L ook
ĠS on
Ġhou ses
f or
Ġc ertain
Ġmy self
Ġkn own
Ġstre ng
c c
ph ra
Ġapp ro
G o
Ġo pp
Ġstand ing
b orn
in ed
Ġto day
Ġr am
Ġs al
Ġwho se
Ġas semb
ĠZ e
Ġwork s
err or
ra id
Ġrep lied
Ġdes cend
i ah
im Ê¹e
Ġsacrif ices
Ġdwell ing
ĠJ ord
Ġfl ock
ull y
Ġprin ces
ĠJord an
Ġt ree
Ġa p
Ġb ound
Ġg ot
.âĢĻ âĢĿ
Ġansw er
Ġf in
Ġsu pp
Ġb ro
am b
ro s
ĠM oÊ¹ab
l s
u nd
Ê¹ se
Ġcom ple
Ġne w
f ully
Ġp ill
ac hed
Ġpl aces
Ġcour t
âĢ ľ
ĠL ike
Ġaf raid
Ġgat hered
n ed
ĠL aw
aÊ¹ d
x t
re m
Ġc are
Ġre ad
Ġst ay
ĠWh y
Ġreturn ed
Ġpossess ion
Ġ 7
ed s
ar Ê¹i
Ġe ld
ir c
Ġgi ving
Ġsome one
Ġbir th
Ġconcern ing
i red
he m
Ġc op
ĠS e
th an
Ġwor ld
.âĢĻ âĢĿ+
Ġsacrif ice
Ġfor g
ri Ê¹ah
Ġgu ard
Ġ2 0
Ġsure ly
Ġc ry
led ge
Ġinst ru
Ġthir d
b Ê¹
Ġb attle
Ġc lean
od u
Ġeld ers
N ow
a id
l i
Ġth ing
ĠThe ir
ron t
Ġh op
er ve
iÊ¹ a
Ġsin s
Ġreg ion
Ġg if
Ġsla ve
n i
Ġm ess
at ely
Ġc au
Ê¹ p
Ġst ood
Ġsee k
Ġapp ointed
ĠEÊ¹ phra
Ġsec ond
Ġm uch
it her
Ġp ie
Ġcon f
Ġpro v
ĠThere fore
Ġmak ing
sp ring
es c
ot s
am in
Ġoff spring
Ġ1 9
sh ip
Ġbu ilt
iz ed
o g
r ance
Ġc ause
Ġpr odu
b oÊ¹
Ġ est
ho se
Ġv ine
Ġpro st
Ġres p
Ġmountain s
Wh y
Ġjudg ment
Ġthr one
Ġcongreg ation
ĠS am
ra g
Ġsa ve
ĠM e
Ġal ive
Ġlong er
ĠWh at
as on
aÊ¹ b
pp ed
Ġnam ed
Ġte ach
r an
Ġw o
Ġf ront
er ved
en ed
ar ge
ĠA n
Ġde f
Ġsu n
I n
b ath
n as
v ation
in s
Ġm erc
Ġc reat
le ase
Ġne ws
? âĢĻ
J e
Ġm in
Ġm aster
Ġgu ilt
Ġg ather
Ġsp read
Ġent er
Ġpre p
Ġchar i
Ġs ing
Ġway s
Ġp ay
il ies
Ġbel ie
m er
em ber
Ġmid st
Ġp at
Ġrej oice
Ġtr uth
Je hovah
j ect
Ġc ount
en g
Ġso on
Ġhead s
Ġatt ention
Ġfam ily
Ġpo or
Ġsal vation
Ġw ise
Ġsh ame
aÊ¹n a
I t
Ġf ive
ĠG il
.âĢĿ âĢĻ
ĠC aÊ¹na
Ġdis g
Ġout side
if y
Ġab le
Ġcl oth
Ġgl or
Ġrece i
Ġstreng th
e al
Ġon ce
Ġst ones
itt le
Ġcop per
! âĢĻ
n er
Ġh orn
is on
Ġdist ress
Ġev il
Ġcomple t
Ġb orn
Ê¹ sa
et er
Ġex t
way s
ĠCaÊ¹na an
v ent
he ad
Ġd ire
Ġbe ar
Ġha l
Ġk ill
ĠZ ion
Ġd on
ĠE l
Ġfam ilies
Ġcertain ly
Ġassemb ly
L et
ur ther
Ġent rance
Ġjud ge
boÊ¹ am
es h
Ġn ation
ow s
Ġre ign
ke y
ic ing
Ġknow ledge
Ġra ised
Ġdon key
Ġl ittle
Ġad v
Ġmak es
Ġmeet ing
; *
T here
s he
Ġbe ast
ĠW ill
ĠD an
ĠP aul
ĠP eter
Ġeven ing
p e
r Ê¹i
Ġ esc
Ġc le
Ġnum ber
Ġdark ness
u al
Ê¹ c
Ê¹ sh
ĠT hose
Ġe ast
Ġoff ic
ag es
itt ing
Ġcal am
Ġcrow d
u el
Ġd ri
Ġgo at
Ġwat ch
W e
j amin
m an
it ion
Ġg one
Ġsu ch
Ġco ver
Ġset t
Ġsl aught
Ġtre es
rem iah
Ġw a
ĠJe remiah
Ġres id
Ġacc ount
Ġtru st
Ġfaith ful
F or
us h
Ġreg ul
iz e
sy rÊ¹i
ĠBen jamin
Ġmerc y
k en
m en
Ġm oney
Ġl arge
al ed
Ġwor th
Ġcomm it
Ġfirst born
Ê¹se h
nas Ê¹seh
W ho
W hen
e ad
is ions
ĠJ oÊ¹ab
Ġpr act
Ġheart s
Ġent ire
uth or
irc um
Ġest ab
Ġt en
ĠS y
ent s
Ġk illed
and s
He re
Ġesc ap
Ġ id
ĠS a
Ġhouse hold
Ġevery one
Ġhop e
Ġc or
ut ion
Ġwho ever
Ġde fe
ĠAl so
p her
Ġ ut
Ġf ight
Ġd el
Ġbring ing
Ġim p
Ġdet est
Ġhal f
Ġcalam ity
u es
Ġl aid
Ġu nd
Ġwe ep
Ġst um
th ough
Ġab and
Ġjust ice
on Ê¹a
Ġother s
Ġad d
Ġ4 0
Ġcontin ue
Ġcourt yard
Ġprost it
a iÊ¹ah
Ġ Y
Ġt ou
Ġnor th
Ġrej o
Ġtr ans
Ġref u
c i
t he
Ġ error
Ġt ab
us b
Ġab ove
Ġ1 0
Ġsu b
Ġserv ice
Ġcommand ments
Ġdest ru
Ġkind ness
Ġpast ures
Ġdescend ants
ircum c
o ver
Ġt err
Ġh usb
ĠB y
ain s
la im
Ġsac red
oh n
ros s
Ġpie ces
Ġmin ister
! âĢĿ+
A s
B ut
a ut
i ately
m or
is es
at ing
Ġfor t
ĠAr k
med iately
Ġwhe ther
Ġt est
Ġf illed
on or
Ġd uring
Ġth ough
Ġin s
Ġg row
Ġre qu
Ġas s
ĠKing dom
Ġob ey
m arÊ¹i
il ed
Ġne xt
Ġfollow ing
Ġs ister
Ġh or
Ġh ard
im on
Ġst at
Ġde ep
Ġus ed
ors es
Ġper ish
ĠSy ri
Ġid ol
Ġaband on
B e
Ġt able
Ġa uthor
Ġh id
Ġb ook
Ġal ways
Ġfo ol
Ġwalk ing
ĠSam uel
a ac
Ġto ng
ac le
est iv
ĠIs aac
Ġso ld
Ġbre ak
Ġm atter
ac ed
Ġ1 4
Ġshe pher
eÊ¹ b
Ġs y
Ġto r
ho Ê¹
Ġwi d
Ġst op
ĠHe z
Ġac cept
Ġbound ary
H ow
i er
ou n
Ġh orses
Ġl amp
Ġwith in
ĠE ven
Ġshe ke
Ġcar ried
Ġdep arted
ĠBeth Ê¹
ĠAmÊ¹ mon
Ġ V
Ġt er
in ess
is f
Ġm o
Ġbe aut
ĠM ount
Ġco nd
Ġsec ret
Ġdestru ction
i ol
Ġl ay
ĠJ ohn
id es
al f
il s
Ġapp ear
m in
Ġs outh
id ed
el s
Ġwhat ever
Ġro ad
Ġgar ment
Ġresc ue
Ġw ood
ct ed
ern al
Ê¹b a
Ġtre as
Ġsat isf
Ġanim als
Ġpat ernal
s en
Ġs ix
en e
le ep
ĠH er
Ġsh out
Ġdes ol
Ġchie ft
Ġs ight
as ed
Ġsur round
Ġrece ive
Ġtab ern
f lic
n iÊ¹ah
t ory
Ġl ed
ĠA sh
Ġv iol
Ġreg ard
Ġbeh alf
Ġstri ke
Ġdetest able
re am
es erved
ĠJ o
ĠJ oÊ¹
ĠJ onÊ¹a
Ġli e
oin t
Ġopen ed
Ġpill ars
Ġund eserved
Ġtabern acle
u ally
Ġwi ves
Ġsa ke
Ġsin ce
Ġbeh ind
Ġterr it
z iÊ¹ah
Ê¹ g
Ġp it
Ġp ort
Ġl amb
Ġpro c
Ġro se
Ġlook ed
Ġra in
Ġqu ick
Ġcho sen
b e
h a
Ġh u
or ted
ĠG o
Ġ1 3
Ġle ave
Ġdes er
,âĢĻ +
Ġsm oke
Ġgener ation
vent h
Ġhusb and
r ay
Ġs ick
Ġf at
ĠS ab
Ġar ri
Ġru l
Ġsl aves
Ġcons um
Ġobs erve
Ġvine yard
Ġauthor ity
T hen
l om
t y
Ġb es
Ġf al
Ġm our
Ġha ving
ĠS iÊ¹
Ġse venth
Ġli ved
Ġex al
Ġne ed
Ġbet ter
Ġpur s
Ġgif t
ĠGil Ê¹e
a pp
Ġm ind
Ġd ra
Ġl ow
Ġrem ember
Ġgi ves
Ġen c
ĠEÊ¹ dom
Ġfo ot
Ġwar ri
Ġ ir
Ġf ree
Ġse ar
Ġfl ed
Ġatt end
ĠBaÊ¹ al
Ġunderstand ing
Ġmess eng
Ġcau sed
Ġseek ing
e ch
g ed
i ves
Ġs itting
Ġin d
ĠE very
ph Ê¹
Ġthan ks
Ġru n
Ġrej ect
Ġgat es
Ġbro ken
ĠSab bath
+ âĢĶ
h iÊ¹
i ans
z er
ou red
Ġf lee
ĠJ aÊ¹
Ġre ason
Ġcl ot
Ġquick ly
a ir
u Ê¹b
Ġa head
Ġf act
Ġd ust
ac her
ke t
Ġall ow
Ġal one
Ġpr ison
Ġco ll
Ġ2 4
Ġrep ro
Ġtrib es
Ġfal se
d le
at es
ar ing
ĠH aÊ¹
ĠM ore
ĠO f
Ġ1 1
read y
Ġtent h
ĠY es
i a
Ġ 9
it ing
il ate
Ġal ready
Ġ1 8
Ġr ise
Ġfir m
Ġwr ong
ĠAb Ê¹sa
Ġbless ed
Ġcomp an
Ġpray er
Ġrecei ved
Ġterrit ory
Ġo ath
Ġs um
Ġg re
Ġha ir
if ul
Ġab und
Ġv alley
Ġdis p
sh a
Ġcl oud
ĠWh ile
lis hed
ĠNe b
C ome
g s
Ġs n
Ġh ome
Ġto p
ho iÊ¹a
Ġl ion
Ġdes p
Ġthrough out
Ġent ered
ĠAÊ¹ sa
Ġdev ot
Ġfell ow
Ġburn ing
Ġreb u
M y
Ġt ear
Ġm ult
Ġd ream
ĠJ ust
ve l
le ch
Ġsa ved
Ġhou r
Ġex cept
Ġdecla re
Ġim mediately
ib le
Ġsanct u
Ġteach ing
g ress
Ġh onor
Ġli vest
Ġdo or
Ġkn e
Ġcl ose
ĠEÊ¹ s
Ġchief s
Ġtong ue
ĠV alley
Ġlivest ock
d eÊ¹
i ver
o c
Ġin side
ĠB eÊ¹
Ġde eds
Ġne igh
Ġne ither
Ġfam ine
Ġenem y
estiv al
o f
Ġw est
Ġo cc
Ġs it
Ġc ast
Ġc ase
id er
al th
ter s
sh an
Ġbu ried
Ġspe ech
Ġmountain ous
liÊ¹ jah
Ġidol s
T o
t en
Ġp ath
Ġin v
Ġl oud
ow ing
ĠS t
Ġpro f
Ġ2 3
Ġro ck
Ġhear ing
ib Ê¹e
Ġ5 0
Ġbelong s
Ġsanctu ary
ĠEÊ¹s au
he l
in en
is s
Ġm ost
Ġth ought
et s
ord er
ĠD e
ul f
Ġsu ff
Ġrep ly
Ġstre t
Ġut ens
Ġh ur
Ġp al
Ġl inen
Ġhis tory
ra ge
ĠL eÊ¹
aÊ¹ a
os ed
Ġri ch
Ġ3 0
att ered
Ġfollow ed
Ġap art
Ġneigh b
b ed
l asting
v i
ou rage
it ed
Ġc her
Ġl ast
Ġde mon
ĠF urther
ĠN or
Ġpl ant
Ġro om
Ġact s
ĠPhar ise
Ġmeas ure
ĠMore over
T ake
e ep
i k
Ġin ter
Ġe m
ent ly
ĠH aÊ¹m
ore d
ist ered
ph at
Ġear s
Ġrefu ge
Ġfort ified
Ġdesol ate
Ġutens ils
, âĢĿ+
Ġa st
Ġs ort
Ġh ate
Ġth row
ut es
ĠH o
ant ly
Ġoff ered
Ġun ion
Ê¹n a
Ê¹n ah
Ġaf flic
Ġhar m
Ġref us
Ġcapt ured
Ġcur se
Ġever lasting
Ġcomplet ely
Ġrequ est
Ġir on
I s
n ant
Ġa w
Ġb as
Ġm el
Ġp un
Ġth ous
Ġwi de
ro ll
Ġli es
Ġli ps
ic ial
Ġsin ned
Ġrep ort
Ġpres ence
Ġburn ed
Ġreb ell
Ġap ost
Ġc up
Ġl ying
Ġst ra
Ġbec om
ĠIs h
us hed
Ġgo ver
Ġv ision
Ġgreat er
Ġbeg in
bÊ¹ u
ircumc ised
p ed
r us
Ġb ones
Ġf em
Ġd if
Ġg ir
ĠG ra
ĠG ibÊ¹e
Ġbr an
Ġar k
ĠAÊ¹ hab
Ġprom ised
Ġsk in
Ġproc laim
o il
Ġ 8
Ġb ed
Ġb apt
Ġf ast
Ġp our
ur y
ic ed
Ġat e
one ment
ĠN a
Ġcomm un
Ġey e
Ġsm all
Ġhapp en
Ġanim al
ni h
Ġbelie ve
Ġdisg ust
Ġdire ct
Ġestab lished
Ġtrans gress
Ġgover n
ĠB ar
Ġan nih
Ġse x
Ġde al
Ġsh are
ch ad
Ġrem oved
ne zÊ¹
Ġwr ath
Ġreg istered
Ġangel s
Ġopp ress
Ġfin ished
Ġprodu ce
Ġprep ared
Ġescap e
uÊ¹b en
nezÊ¹ zar
d a
u nder
in ing
Ġm ur
Ġd ry
Ġu se
ĠG ad
Ġr od
ĠCh al
Ġlook ing
ĠRe uÊ¹ben
Ġrejo icing
Ġfem ale
g in
w ise
Ġs leep
Ġc e
Ġp ure
Ġl ater
Ġat onement
Ġcon st
Ġfather s
Ġcont rib
The y
Ġra ise
Ġfe el
Ġchari ots
Ġwarri ors
l ine
Ġt rou
Ġb ore
Ġp oured
Ġj oin
Ġhand ed
Ġsw ore
Ġru in
Ġact ed
Ġtre mb
Ġhar vest
Ġcher ub
in ally
Ġb oy
Ġp an
Ġp ub
Ġin ner
ho sh
ĠJe Ê¹
Ġup right
ch ing
Ġex ile
Ġbl ind
Ġco ve
Ġprophe sy
Ġob ject
Ġatt ack
Ġtak ing
Ê¹l ah
ĠAmÊ¹ or
Ġread y
Ġsuff er
Ġcommun ion
Ġpub lic
d er
e c
w or
Ġt reat
Ġst ake
Ġ1 5
la w
Ġfa il
Ġremain ed
ĠWho ever
hosh Ê¹a
e ared
Ġb it
ĠA d
ri end
ĠG al
Ġr id
Ġfl our
Ġeat ing
Ġwalk ed
Ġfall en
Ġinc ense
Ġdestroy ed
Ġport ion
Ġhu ng
ĠPharise es
Ġcove red
i el
o e
in ce
Ġb ene
Ġto w
ar le
le b
Ġre ached
Ġan ointed
Ġ1 00
Ġwor ship
ĠSe a
Ġsheke ls
Ġarri ved
h az
Ġt ry
Ġf ig
Ġf riend
Ġm il
Ġc attle
Ġg ri
ot e
ut ed
il ity
ak ed
Ġlo ved
Ġknow s
Ġgr ant
Ġslaught er
Ġcommit ted
Ġcoll ect
m ore
t o
is ing
Ġf ill
Ġl ear
Ġfor m
Ġwe ak
Ġst arted
Ġli f
ĠF inally
Ġun f
Ġrem ove
ne y
Ê¹m a
Ġchar ge
Ġhorn s
l ah
r im
u ri
Ġh ill
Ġc aught
Ġth res
Ġin qu
Ġg ain
Ġse ed
Ġli ves
Ġde ce
Ġland s
ĠEgypt ians
Ġper for
Ġbless ing
Ġmid dle
Ġbull s
Ġgener ations
Ġreign ed
ĠDan iel
Ġsett le
Ġass ign
Ġfool ish
Ġpun ish
y ond
Ġt ri
Ġb order
Ġf ut
Ġf ulf
Ġm et
Ġy es
ed i
Ġnam es
Ġfour th
Ġmesseng ers
Ġbegin ning
Ġdisgust ing
P lease
Ġs or
it Ê¹t
Ġth ink
an ge
Ġfor mer
Ġwe alth
ur ity
il i
ĠP as
Ġdes ire
Ġim age
Ġcamp ed
Ġprom ise
Ġram s
Ġcloth ing
Ġsatisf ied
Ġsex ual
h ath
Ġw ings
Ġc ross
ĠA Ê¹b
Ġre ve
Ġre ally
ĠM ost
ĠHe bÊ¹
iÊ¹ jah
so ver
Ġen ough
Ġpass ed
Ġabandon ed
Ġshepher d
Ġter rif
deÊ¹ ans
Ġgir l
ĠPas sover
ĠHebÊ¹ ron
b led
g u
g ing
r s
Ġm ag
Ġl ab
Ġex ec
eÊ¹ zer
Ġr an
ĠTh us
Ġapp eared
Ġcommand ment
Ġsil ent
Ġrel ations
Ġhapp ened
Ġregul ations
Ġind ign
Ġbran ches
Ġbit ter
c ho
c us
h am
Ġ ill
Ġc he
Ġc ourage
Ê¹ er
Ê¹ ri
Ê¹ ites
ar ies
Ġl ack
Ġe l
Ġwas h
op s
Ġsh ield
Ġv al
aven ed
Ġpre v
Ġstre am
There fore
Ġweep ing
Ġhor se
Ġchieft ain
Ġneighb or
ĠGra ve
N o
S o
n on
re nt
Ġc ed
Ê¹ z
Ġhe ld
Ġout er
Ġgo es
You r
Ġres ide
Ê¹t a
end ed
Ġsl ain
az Ê¹a
ix ed
Ġsign s
S el
i res
l iÊ¹ah
m p
m s
p es
Ġin de
Ġst or
.âĢĿ *
.âĢĿ *+
aÊ¹ zar
Ġcon ce
Ġv ir
ĠR em
Ġ2 5
Ġchari ot
Ġdefe ated
Ġlamb s
Ġsum mon
Sel ah
W here
Ġto wn
Ġin n
Ġn one
Ġg rew
ri pt
ĠM iÊ¹
ic al
Ġdis h
ĠJer Ê¹i
Ġfe w
Ġdecla red
ap s
Ġjudg ments
Ġcons ider
Ġcarry ing
Ġstay ed
Ġcreat ures
Ġworth less
Ġgri e
b el
b Ê¹a
c ious
l ish
Ġf aces
Ê¹ k
om p
Ġsp oil
Ġal though
Ġsh ip
Ġsee ing
Ġcall ing
Ġgra nd
Ġdep art
Ġsend ing
Ġpower ful
Ġbir ds
ang ed
Ġcle ar
Ġfaithful ness
ĠSyri a
Be cause
Ġhid den
ĠBethÊ¹ el
Ġexal ted
app y
; *+
a ith
e re
k im
s ing
Ġb an
Ġd ro
id Ê¹i
Ġre al
Ġyour s
al es
ĠN ot
ist ed
Ġpro per
Ġex am
Ġear ly
ĠR iver
Ġsw ear
Ġeat en
ĠLe bÊ¹a
Ġremain ing
Ġbeaut iful
c ah
i or
ou ds
Ġf estival
Ġg rou
ĠA z
ĠC a
ĠE ach
Ġac qu
ĠR eÊ¹
Ġbow ed
Ġinc l
Ġcomp ass
Ġbre ast
Ġresc ued
Ġem pt
Ġrefus ed
Ġinn oc
u ght
Ġf ish
Ê¹ ph
Ê¹ ne
Ġl ine
Ġre ward
ĠS imon
ra ise
Ġson g
ĠM idÊ¹i
res p
Ġro yal
ĠIn st
Ġsc attered
Ġbel oved
Ġwicked ness
Ġtak es
Ġdev ast
Ġcr own
Ġappro ach
Ġappro ached
Ġbeast s
b ah
i ers
n ah
Ġm a
Ġyou th
Ġl ep
Ġg ard
Ġfor ward
Ġse ll
ven ge
Ġpl aced
fe ct
oÊ¹ ni
Ġgreat ly
Ġrep orted
Ġcl ouds
ĠShe Ê¹c
Ġpre cious
Ġwall s
Ġhum ili
Ġmess age
Ġresp ect
Ġwid ow
Ġrul ers
Ġclot hed
ĠHo ly
ĠGal Ê¹i
Ġinde ed
ĠSheÊ¹c hem
c l
Ġ ve
Ġth orn
Ġth rew
ĠS eÊ¹
Ġse em
ĠW here
Ġbu y
Ġ2 6
Ġro b
Ġacc omp
Ġcr ushed
Ġopp os
Ġinstru ct
Ġdeser t
Ġsear ch
Ġattend ant
Ġprof an
Ġel se
G et
b imÊ¹e
f ort
n ag
s on
ĠJ ah
le nd
al ity
ĠH ave
Ġwh ite
ĠM aÊ¹
Ġdo ors
Ġbr ings
ĠP e
ight y
la am
ĠR aÊ¹m
Ġrem ind
Ġru le
Ê¹n er
Ġqu ar
Ġdev our
liÊ¹ sha
Ġcour se
Ġbuild ing
Ġpleas ure
Ġgif ts
Ġsold iers
Ġappear ance
Ġfirm ly
nag og
M ay
S on
b ered
f ace
as ing
ot ten
ĠT y
Ġe ag
Ġsa nd
ru n
Ġne ck
Ġrep ay
ĠZ eÊ¹
Ġsc rib
igh ing
Ġtent s
Ġad vers
Ġsho wn
ĠSh iÊ¹
Ġremain s
ĠBaÊ¹ laam
Ġpleas ing
Ġ7 0
Ġdonkey s
Ġsy nagog
Ġcherub s
Ġcompass ion
Ġs qu
Ġc orn
ĠI ts
Ġre d
ĠG ive
Ġcom fort
est ic
ak en
ep h
Ġ1 6
Ġser ved
fe ction
Ġsu cc
ĠZ ed
Ġsc roll
Ġple ad
Ġjudg es
Ġpass ing
Ġinc re
Ġbre ath
Ġflock s
ĠAn y
Ġslaught ered
Ġassign ed
Ġsucc ess
u ct
Ġt al
Ġw ound
Ġh oney
Ġm is
Ġm ine
or Ê¹
Ġe ight
Ġme an
Ġas ide
ĠH iÊ¹
Ġst up
ĠP er
Ġar row
Ġra ge
Ġsec urity
Ġdra w
Ġkne w
Ġunf aith
Ġstup id
c ai
i ven
n ers
p ar
Ġt ur
Ġs ou
Ġm ixed
at ive
Ġd om
Ê¹ mon
Ġn aked
Ġl ot
Ġbe yond
ĠâĢ Ķ
ow ed
ĠS ar
Ġsp lend
ru pt
Ġj our
Ġher d
Ġstri k
Ġsanct ified
Ġthr own
Ġjoy ful
Ġhum an
Ġprostit ution
Ġstat utes
Ġocc ur
Ġapost les
Ġlif ted
Ġempt y
Ġinnoc ent
a f
n ai
Ġh ide
Ġc am
le avened
Ġfor get
ur ch
ĠD am
Ġher self
Ġno b
Ġle g
Ġen g
Ġtru mp
Ġper se
Ġdisc ern
Ġforeign er
Ġwo nder
Ġprep are
oun ce
Ġmour ning
Ġthous ands
ĠAÊ¹b ram
Ġma j
Ġjour ney
a ff
j oy
p l
s iÊ¹ah
Ġt alk
Ġf if
Ġf ought
Ġm ist
as cus
ĠA re
Ġu r
ĠH a
Ġst ub
ak ing
ĠN ever
Ġwr ote
Ġjud icial
The se
ĠAb Ê¹ner
ĠBaÊ¹ shan
right eous
Ġpill ar
Ġcomplet e
Ġdri ve
Ġgoat s
Ġsub ject
Ġreject ed
Ġmult ip
ik h
. )
L ord
b bath
c ket
e k
h as
i an
i ving
r ate
Ġb od
Ġto mb
Ġas cend
Ġsa bbath
Ġst ep
ro om
Ġse ized
Ġam ount
Ġlo c
Ġthere fore
Ġun righteous
Ġwr ite
Ġkeep s
Ġwhere ver
iv ity
ĠSh imÊ¹e
Ġpo les
Ġsanct ify
Ġbo ast
Ġcrow ds
Ġtra ve
Ġforg ive
Ġwo ol
Ġglor ious
Ġregul ar
Ġstum ble
Ġcontrib ution
Ġtrou ble
ĠJeÊ¹ hu
Ġtown s
ĠDam ascus
Ġperse c
? *
g ain
l ay
m ighty
z i
Ġw in
Ġs ides
Ġd run
Ġp u
am es
ĠM orÊ¹
ĠL ater
ru st
ĠHe re
Ġsh ut
Ġsh ad
Ġfl o
Ġfe ed
Ġpre g
ĠAl mighty
Ġdisg r
Ġinter p
Ġdirect or
Ġscrib es
ĠMorÊ¹ de
A fter
S t
b ers
e ed
it ud
Ġc ra
Ġp ull
Ġhe al
ri age
ĠH or
Ġlo ves
ĠP eÊ¹
ĠP ilate
ie ge
ud den
so l
eÊ¹ d
Ġdis aster
Ġtru ly
Ġend s
ĠSh aÊ¹
Ê¹n on
Ġqu est
ĠOn ly
ĠAl though
Ġinst ead
ang u
Ġthir st
Ġmeas ured
ran k
eal ous
Ġthought s
ĠLeÊ¹ vi
Ġmel ody
Ġbecom es
ĠIsh Ê¹ma
Ġgard en
Ġbod ies
A re
e e
y s
Ġy oke
Ê¹ s
Ġp ain
Ġn et
Ġl angu
ĠT ake
st her
ir Ê¹i
al Ê¹l
Ġsp ear
ĠL isten
ĠL aÊ¹b
ĠE sther
aÊ¹ im
Ġso cket
Ġv ow
Ġri ches
Ġput ting
Ġ2 2
Ġbet ray
Ġmonth s
aÊ¹n an
Ġbro ke
Ġforg iven
Ġconf id
Ġcount ed
Ġcle ans
Ġpract ices
Ġcond uct
Ġbene f
Ġsettle ments
Ġlab or
Ġfif th
Ġpreg nant
ĠLaÊ¹b an
a x
r or
Ġt error
Ġf re
Ġf urther
or Ê¹ah
Ġp ed
ĠI m
ir ing
ĠS at
Ġit self
Ġst ir
Ġbr ide
Ġsh ort
ĠN ile
Ġpl ag
Ġpl under
Ġour selves
ĠZ aÊ¹d
Ġdec isions
Ġspeak s
Ġend ures
Ġsec ure
Ġdrink ing
Ġdep end
ai ah
Ġpra ised
Ġgr ass
Ê¹p ah
Ġdef iled
?âĢĻ +
Ġguilt y
Ġdel ight
Ġadd ed
imon y
Ġafflic t
Ġstra ight
Ġdif fe
ĠTy re
Ġsou l
ĠZaÊ¹d ok
a res
b ush
n ow
Ġs ack
er ous
Ġc ried
en ced
Ê¹ u
Ġe mb
Ġre v
ĠB o
Ġst ore
Ġst art
il es
Ġse par
Ġde cept
ĠIs aiah
ru ly
Ġag o
ak es
Ġlo aves
ous ly
la z
ph Ê¹ta
Ġdis e
Ġsw e
Ġim mor
Ġtr amp
Ġpra ises
Ġsur v
Ġbo at
Ġkingdom s
ĠNo ah
ĠZe ch
Ġdire ction
Ġmo on
Ġsurround ing
Ġhung ry
Ġterrif ied
Ġval ue
Ġped est
ĠSat an
m ing
m ost
nd eed
Ġb ig
es sel
Ġc ust
Ġha ught
Ġfor med
ke ep
ĠG id
el t
ĠH igh
ĠC ome
Ġam az
Ġv essel
Ġun less
Ġpr on
Ġr ather
Ġserv ing
Ġfore st
Ġrem em
Ġord ers
Ġim ages
Ġaltar s
Ġcapt ives
Ġglor ify
ĠSyri ans
ĠBethÊ¹ le
Ġbes ide
ĠFurther more
ĠHaÊ¹m an
Ġpan el
Ġthres hing
Ġsummon ed
Ġdevast ated
Ġwonder ful
Ġpedest als
b ling
r ation
t hen
Ġt ax
Ġb est
Ġf ac
Ġc ros
ar Ê¹m
Ġl asting
ĠJ ob
ĠG ate
Ġas ham
Ġse es
Ġse ize
ĠM ary
ĠM iz
ĠP lease
ĠP raise
Ġri ver
ĠK eep
Ġfl ood
Ġdist ance
Ġlead ing
Ġdet er
Ġresp ons
Ġadv ice
Ġprostit ute
Ġshepher ds
Ġlamp stand
Ġabund ant
Ġbapt ized
ĠInst ead
Ġasham ed
c ome
l am
l ain
l un
m it
u ing
Ġd en
Ġp os
ĠI ndeed
ĠG er
ur re
Ġst ars
ĠC ity
ie f
Ġres urre
Ġang ry
Ġfound ation
Ġfield s
Ġinhabit ed
Ġwitness es
Ġpur ple
Ġnum erous
og n
the less
Ġgre et
ĠNa phÊ¹ta
Ġpunish ment
Ġill ust
Ġloc ust
Ġshad ow
Ġflo or
itud e
Ġcros sed
Ġdeter m
b a
i et
Ġa we
on se
Ġc ircumcised
Ê¹ om
Ġp or
Ġin f
Ġl eng
ĠJ u
Ġbe at
ĠH an
ĠH appy
ce ed
Ġup ro
ĠC aÊ¹
ĠO ther
Ġar t
Ġrep ent
Ġsw orn
Ġro of
Ġsc hem
Ġru ins
Ġcar ved
de Ê¹a
Ġlisten ed
Ġjudg ed
ĠNe xt
Ġrec ogn
ĠZe bÊ¹u
Ġcare fully
Ġcount ry
Ġresid ent
Ġfight ing
Ġhor ror
hoÊ¹ ash
Ġbeaut y
Ġviol ence
Ġstret ched
Ġast ray
Ġced ar
cl oth
Ġtal ents
Ġcam els
Ġdrun k
A t
Ġm ort
Ġth read
Ġg ro
ĠJe zÊ¹
Ġe phÊ¹
ĠS imÊ¹e
ri es
Ġme at
ul ter
Ġover t
Ġv ic
Ġshe d
ĠK oÊ¹
Ġbl ue
Ġun re
Ġdec l
per i
Ġask ing
Ġbir d
Ġjoy fully
ĠSe e
Ġtor n
hoÊ¹ ram
Ġconsum e
Ġabund ance
Ġtear s
Ġhill s
Ġvir gin
Ġdiffe rent
Ġsack cloth
ĠJezÊ¹ re
ĠephÊ¹ od
d oÊ¹ni
e g
j a
o ch
Ġ venge
Ġt ro
Ġw ail
ing ed
Ġc rag
Ġwill ing
Ġre de
od Ê¹om
ĠS ho
Ġwe ap
ĠH itÊ¹t
Ġst aff
ĠM ake
ĠO ur
ch ar
av ing
Ġv ie
Ġ1 7
em pt
Ġknow ing
Ġpr ide
Ġsc arle
Ġad ulter
ap ed
ĠSh ould
ious ly
Ġdiv ided
Ġpract ice
Ġcor rupt
Ġins ight
Ġstop ped
Ê¹g al
Ġrul er
Ġrepro ach
Ġdevot ed
Ġpal m
Ġgovern or
Ġannih ilate
Ġreve aled
ĠAny one
Ġsplend or
Ġinterp ret
Ġquest ion
Ġleng th
Ġrede em
Ġscarle t
G ive
c her
g es
l ak
n a
Ġt ried
Ġw ave
in Ê¹e
Ġs iege
Ġc ap
Ġd ining
Ġp ot
ot ect
ĠT im
Ġfor th
ĠS odÊ¹om
ac hel
il Ê¹
Ġsp rou
ĠHe b
Ġcon ne
av ed
Ġri pped
ĠR achel
ĠJes Ê¹se
Ġrep urch
Ġacc ur
ĠEÊ¹ li
Ġsc atter
ĠBe fore
Ġdiscip line
Ġsur face
Ġshow ed
Ġfull y
Ġmar riage
Ġcur tain
Ġsupp ort
Ġsett led
Ġwa iting
Ġchieft ains
Ġconst antly
Ġmil k
Ġlear n
Ġmet al
Ġgrou p
ĠNever theless
Ġdisgr ace
Ġdepend ent
Ġfac ing
Ġvenge ance
Ġtro ops
T ell
c ing
d ab
g er
m oth
o om
u g
Ġs ad
Ġs udden
re et
Ġb ag
Ġb ars
Ġf ly
Ġm oved
ed ge
Ê¹ ron
ĠA gain
ĠT eÊ¹
Ġwe ighing
th ah
ro g
ro sy
ter n
if ic
ĠN aÊ¹
Ġex ult
sh i
Ġr ings
Ġ2 1
Ġacc us
Ġwr iting
Ġkeep ing
Ġord ered
lisÊ¹t ine
liÊ¹ a
Ê¹l am
Ġpresent ed
Ġinstru ments
Ġcreat ure
she Ê¹ba
ĠHer od
Ġshout ing
ĠAÊ¹sa ph
iss ion
Ġjoin ed
Ġtow ers
Ġdece it
Ġincl ud
Ġlep rosy
Ġpu rif
Ġbenef it
ĠKoÊ¹ hath
Ġvie w
? *+
S ee
W oe
b iÊ¹ah
f all
f ts
k ind
m a
m and
r ings
u ish
Ġa rom
Ġs our
Ġf ier
ĠA Ê¹i
Ġe qu
Ġme al
Ġwas hed
Ġman kind
Ġsp ring
ĠC an
ab Ê¹b
ch ish
ĠP ro
Ġcon v
Ġpro ve
ĠK orÊ¹ah
Ġsin ners
Ġarm s
Ġpre ach
Ê¹m ah
Ġbow l
Ġcho ose
Ġdri ven
Ġworth y
Ġestab lish
Ġtou ched
Ġcond em
Ġsix th
ĠAsh Ê¹er
Ġlow ly
Ġenc amp
Ġdemon s
Ġrebell ed
Ġstub born
Ġlangu age
H ave
g iving
h ar
h aÊ¹nan
n aiÊ¹ah
s per
Ġ z
Ġ err
Ġw ra
Ġw ag
Ġs ow
Ġb ar
Ġb right
Ġf elt
Ġd ies
an y
Ġhe av
ĠT e
ĠJe w
Ġe ither
Ġan x
and er
au nt
Ġde ar
aÊ¹ iah
Ġcon qu
Ġpl ain
Ġpro sper
Ġri vers
Ġrep air
Ġen joy
Ġapp oint
are r
Ġwom b
end ing
ĠAÊ¹ haz
Ġstr ang
Ġunc ircumcised
Ġstrong hold
Ġwhe at
Ġforg otten
Ġwatch ing
Ġstum bling
Ġsheke l
Ġvineyard s
Ġmour n
Ġce leb
wor k
Ġve get
Ġadvers aries
Ġunfaith ful
Ġleg al
keep ers
A ll
b iÊ¹
c ript
h on
h aps
l ive
Ġt aunt
Ġo live
in th
Ġb laz
Ġm ater
Ġm ales
Ġp est
Ġl im
Ġe Ê¹ph
ri Ê¹
el ess
il ence
Ġli ft
ĠM at
ĠIs Ê¹sa
ter min
Ġam bush
ok ed
Ġag e
ĠN ath
Ġex termin
Ê¹a i
Ġfl ow
ĠShe ikh
ress ed
Ê¹n i
Ġstre ets
Ġtrib ul
Ġlisten ing
ĠBaÊ¹ lak
Ġhar sh
Ġte eth
Ġgr own
Ġpur p
uÊ¹ el
Ġstreng then
Ġpie ce
Ê¹sh on
Ġannih il
Ġinqu ire
ĠRem ember
ĠCa es
Ġsynagog ue
Ġstep s
Ġdeterm ined
Ġarom a
ĠeÊ¹ph ah
ĠNath an
H ear
d o
d iÊ¹ah
f um
Ġh und
Ġf ing
Ġf ram
Ġf ury
at ch
Ġd rag
Ġl ions
Ġhe at
Ġhe ight
Ġhe aled
Ġis l
Ġre ed
et urn
Ġwas t
Ġlo st
Ġlo ad
ĠN az
ĠN aÊ¹b
Ġpl ot
Ġser p
Ġar rog
ph an
Ġun leavened
Ġac ross
Ġspe nd
Ê¹e b
Ġdes ires
Ġgood s
Ġspirit ual
Ê¹b on
Ġper fect
Ġgold en
Ġbur den
ĠBaÊ¹ a
Ġaf fection
Ġcons p
ĠU zÊ¹
Ġ6 0
Ġdiv ision
Ġobs er
Ġfruit age
Ġcreat ed
Ġrecei ves
pe ak
Ġescap ed
Ġrefu se
Ġtreas ures
Ġfriend s
Ġfulf ill
Ġindign ation
Ġstream s
Ġgrie f
Ġdro ve
Ġproper ty
ĠGid Ê¹e
Ġpor ch
Ġart ic
Ġerr ors
Ġhund red
m aiÊ¹ah
p r
u nt
w h
Ġc ave
Ġd ou
Ġin j
ĠJ ames
ĠT est
Ġking ship
av ior
ĠZ oÊ¹
Ġlet ter
Ġfl owing
Ġper fum
ĠâĢľâĢĺ âĢľ
Ġ4 2
Ġalong side
pen s
Ġhar p
Ġpray ing
Ġconc ub
Ġexp ect
Ġmeas ures
aÊ¹d ad
.âĢĿâĢĻ +
Ġcover ing
Ġwa it
Ġsub d
Ġlamp s
Ġconsum ed
Ġattend ants
ĠEvery one
Ġafflic ted
Ġtremb le
Ġstor m
ĠSar ah
Ġdise ase
Ġresurre ction
Ġadulter y
Ġmater ial
O n
S h
c ess
m aÊ¹
t a
v al
Ġo ri
or ts
Ġc ro
Ġd ue
Ġd rew
ĠJe bÊ¹u
Ġre lease
Ġwe ight
Ġme mb
ĠM eÊ¹
us ion
ĠC y
ĠC he
ĠL ot
aÊ¹ al
ĠO Ê¹b
res h
ak er
Ġj ealous
ĠN eÊ¹b
Ġv ill
Ġch ange
Ġpr otect
Ġr ing
Ġtre acher
oss om
ĠU z
Ġlead er
Ġfin ish
ĠGil Ê¹gal
Ġglor ified
Ġregard ing
Ġthanks giving
Ġcompan y
ĠBeÊ¹ er
Ġprev ail
ĠShiÊ¹ l
Ġarrow s
Ġmultip ly
Ġpron ounce
Ġpest ilence
b s
Ġh ired
Ġto mor
Ġp ar
Ġl au
as phe
le m
ĠT w
Ġre ap
ĠS al
ĠG ath
ĠG ree
ĠH esh
th a
Ġse at
ĠC arÊ¹m
Ġsay ings
Ġsh ine
Ġbl ossom
Ġbl asphe
Ġpri ce
Ġ2 8
Ġrem nant
Ġdes ign
aul t
ĠU ntil
Ġforeign ers
Ġwant ed
Ġsing le
Ġsing ers
Ġoffic ial
ĠSiÊ¹ nai
Ġallow ed
Ġtry ing
Ġexec ute
ĠSeÊ¹ ir
Ġremind ers
Ġcorn er
Ġafflict ion
Ġrev ol
ĠMiz Ê¹pah
Ġweap ons
ĠTest imony
Ġtomor row
: *
A l
g o
i als
r ite
Ġt aught
Ġw ish
in ate
Ġf rag
Ġm er
Ġm ention
Ġd read
Ġp ick
Ġin sp
ho od
Ġn ur
ĠI th
ĠJ aÊ¹b
as es
im e
Ġha il
Ġre ach
Ġwe ar
el f
ad Ê¹d
Ġst e
Ġse as
ĠM al
Ġsp rink
ive ly
Ġv ol
Ġfather less
ure ly
rib e
Ġafter ward
Ġwork ers
Ġsc or
side red
Ġstr inged
Ġcapt ive
Ġfind s
Ġpleas ed
Ġtra d
Ġcare ful
Ġprov ide
ĠSam son
Ġdef ile
.âĢĿâĢĻ âĢĿ+
Ġcloth s
Ġbear ing
Ġoffic er
Ġroom s
Ġrebell ious
Ġdif f
Ġtransgress ions
Ġfut ure
Ġfulf illed
Ġsor ts
gu ard
Ġexam ine
Ġquar re
Ġstrik ing
Ġremem bered
Ġpos ition
Ġinterpret ation
Ġpurp ose
Ġfram es
Ġori gin
ĠHesh Ê¹bon
d on
u ra
v il
Ġw ages
Ġs ense
Ġb ought
on ed
Ġc re
Ê¹ ja
id ing
ĠT ell
ir ac
ĠS ome
ra ud
Ġas hes
th y
th ar
Ġse al
Ġse ated
ĠW oe
Ġint ere
Ġpl ay
Ġover la
Ġch anged
Ġex erc
ĠK irÊ¹i
ĠJes h
Ġ2 7
Ġres ult
Ġcommand ing
Ġcont ain
Ġgl oom
Ġgra pes
Ġrest ored
Ġtell ing
Ġfall s
ove red
Ġcub it
ĠU n
Ġmar ry
Ġprov ince
Ġoffic ers
Ġtable ts
Ġmult itude
Ġplant ed
Ġbecom ing
Ġcourage ous
ĠRaÊ¹m ah
Ġimmor ality
Ġhaught y
ĠCaÊ¹ leb
Ġmort al
Ġinclud ing
Ġheav y
Ġannihil ated
Ġvol unt
Ġintere st
) ,
l ies
n am
r oth
r ated
Ġ edge
Ġt ast
in t
in sp
re th
Ġh ated
Ġh ang
Ġb arle
Ġm ark
at he
it ary
on est
Ġd ut
Ġth ick
an ces
Ġg az
Ġfor s
ac hes
ĠG e
Ġst ation
Ġst ate
th i
Ġse ason
ĠM i
Ġman if
Ġsp l
if t
ĠP ers
ul Ê¹lam
sel ess
Ġwor shi
Ġsw all
Ġro ot
Ġcall s
Ġdec ided
ĠPh il
Ê¹t i
Ġsc our
Ġprophe s
Ġsword s
Ġhear s
Ġbur y
Ġlight ning
Ġcho se
Ġcapt ivity
Ġunclean ness
Ġhold ing
Ġhapp y
Ġsla very
Ġdiv isions
Ġinstru cted
Ġpat i
Ġoffic ials
Ġtou ch
Ġsecret ary
ĠSiÊ¹ hon
Ġloud ly
Ġgrant ed
Ġhumili ated
Ġthorn s
Ġoppos ite
Ġsqu are
Ġnob les
Ġunrighteous ness
Ġtrave led
Ġcra fts
Ġsudden ly
Ġveget ation
Ġmer ch
Ġoverla id
insp iring
Ġbarle y
Ġmanif est
B ring
b iÊ¹a
k ed
l oÊ¹
n ight
Ġ Q
Ġw ants
in ces
Ġh om
Ġf urn
Ġm om
at ives
Ġc ord
Ġd ried
ri ct
Ġde w
ic ult
Ġsp rings
Ġsh ar
ĠD iÊ¹
Ġj ar
ĠP aÊ¹
Ġcon sidered
pp ing
Ġshould er
Ġex h
Ġex ch
Ġex ting
Ġgreat est
Ġgood ness
Ġarm ed
Ġcont empt
Ġper man
Ġpre y
ult iv
Ê¹l i
Ġbelong ed
Ġexp ress
Ġmar ried
Ġcongreg ations
ĠBen Ê¹ja
Ġrejo iced
Ġpurs ue
Ġdisp ers
Ġlack ing
Ġship s
Ġseem s
Ġpull ed
Ġdiff icult
Ġmom ent
! *
S peak
b as
h or
h and
u se
y p
Ġs elf
Ġf aced
Ġm ove
Ġc ultiv
ut ing
Ġis s
Ġe tern
st em
ri al
Ġas leep
ĠH il
ĠH uÊ¹
Ġst ick
th am
Ġde mand
ĠL aÊ¹
Ġsh ake
Ġag ree
Ġdis app
Ġco at
Ġbu rial
Ġsw ar
Ġen v
Ġeat s
Ġent rust
Ġob edi
Ġbel t
Ġper ished
Ġ4 4
Ġpres um
Ġ3 2
ĠWho se
Ġpart s
Ê¹d i
Ġcry ing
Ġclean se
Ġcau ses
Ġcor re
ci ent
Ġsy stem
Ġaccept ed
Ġbes ides
ĠSiÊ¹ don
ĠLeÊ¹ ah
Ġthous and
Ġtremb ling
Ġtow er
Ġindign ant
eph Ê¹a
Ġeight h
ĠHiÊ¹ ram
Ġplag ue
Ġfier y
Ġtribul ation
ĠShiÊ¹l oh
ĠPhil ip
b y
g room
k es
l ig
m al
n iÊ¹
p i
u ous
in ary
Ġs en
Ġh ot
Ġb are
Ġf right
Ġc ircumc
Ġd rank
Ê¹ re
Ġn inth
ĠJ a
le ct
id ent
ĠS an
ĠS ince
ĠS avior
Ġwe aring
ĠG u
ur ance
Ġme re
Ġsa fe
ro l
Ġcom for
ĠF estival
ĠE n
ĠN aÊ¹a
Ġv isions
Ġear n
Ġbl ow
Ġun able
ĠJud as
Ġro pes
Ġwork ing
Ġsc orn
Ġturn s
Ġturn ing
Ġgra ve
ĠAb Ê¹i
Ġ4 3
Ġrest ore
ĠSh uÊ¹
Ġqu iet
Ġdist rict
Ġdep th
Ġhar mon
Ġold er
Ġsur re
Ġshow ing
Ġbelong ing
Ġgate keepers
Ġlead ers
Ġrel atives
Ġsk y
Ġmeas uring
Ġcur sed
Ġassemb led
Ġresp onse
ĠAn Ê¹a
.âĢĿâĢĻ âĢĿ
Ġext rem
Ġext ended
Ġadv is
she th
Ġut ter
Ġstat ute
How ever
Ġtreas ure
Ġmesseng er
Ġdevot ion
Ġpath s
Ġinv ited
ĠDe vil
Ġrid ic
uri ous
ĠMiÊ¹ ch
ĠMiÊ¹ cah
Ġconfid ence
Ġswe et
Ġsurv iv
Ġillust ration
ĠOther wise
Ġdecl aring
peri enced
Ġconne ction
ĠOÊ¹b ed
ĠJesh Ê¹u
Ġdispers ed
g ran
m i
Ġp ome
Ġp ity
Ġth under
Ġbe ars
ĠT ar
Ġfor ced
ĠS ay
Ġwe l
Ġwe pt
ĠG ed
ĠG et
ur sed
ĠH im
Ġup per
us hes
Ġman ner
ab ly
Ġv ain
Ġpro ver
Ġex act
Ġsu c
Ġdis ob
oÊ¹ pi
ĠTh rough
ĠTh ough
Ġlet ters
Ġdec ision
Ġwork er
ĠShe Ê¹ba
Ġfe ast
Ġyoung er
Ġ4 5
Ġdist ur
Ġbow ls
Ġget ting
Ġexp osed
Ġrel ated
Ġsupp lic
Ġcau sing
Ġprov inces
!âĢĻ +
Ġresid ing
Ġdra wn
Ġrun ning
Ġclot he
Ġhur led
Ġbas ket
Ġprophesy ing
Ġmil itary
Ġprev iously
Ġban qu
Ġaccomp an
Ġmaj estic
pl ace
Ġthirst y
Ġcust om
Ġamaz ed
Ġlocust s
Ġgro an
Ġfly ing
Ġperfum ed
Ġpome gran
E very
a wn
b iÊ¹jah
c y
c ent
k Ê¹ah
l ight
m ar
p ost
r is
u ished
z a
z or
Ġ ign
Ġof ten
Ġm ock
or ough
Ġp aid
Ġl ess
as hed
Ġe aster
ĠS u
ĠG oÊ¹
ĠB el
il Ê¹e
Ġde ed
ĠE zÊ¹
Ġsh aken
if ying
eÊ¹ rus
ĠR ed
Ġ2 00
ip s
ass es
Ġob tain
Ġob lig
Ġad orn
ĠSh u
Ġmight iness
Ġdist ant
Ġnam ely
Ġpur ch
Ġ6 6
Ġwhe els
Ġprodu ces
Ġtou ches
be arer
be kÊ¹ah
Ġwrong do
Ġtreat ed
Ġlear ned
Ġtri um
Ġexec uted
Ġhorse men
Ġprofan e
Ġincre ase
Ġsuccess ful
Ġdom estic
Ġtrump ets
Ġaccur ate
Ġwra pped
Ġserp ent
Ġbanqu et
Ġeaster n
L isten
M en
c o
h aÊ¹
i ved
n y
r ity
t ure
u le
Ġt read
Ġs own
Ġb ri
Ġb ra
Ġc ru
Ġc oun
Ê¹ rah
Ġp ier
Ġth orough
le w
le ad
Ġon to
ĠJe phÊ¹
st ru
ĠH as
ĠH am
Ġan cient
op h
est y
ĠO ver
Ġso il
ĠN un
Ġint eg
Ġover th
Ġv ows
Ê¹a z
ĠK e
Ġle aving
Ġput s
Ġpri v
Ġfore head
Ġsw eep
Ê¹e k
phe l
Ġcommand er
Ġtw isted
ort ion
Ġsc ript
Ġfe ared
Ġret reat
Th at
Ġstand ard
Ġ4 1
Ġend urance
Ġrest ing
Ġpres erve
Ġ3 00
ĠAm Ê¹non
ĠLev ite
Ġfru its
Ġprom in
Ġcr ush
Ġobs c
Ġsal t
Ġdefe nd
Ġdel ay
Ġobey ed
Ġmatter s
Ġexal t
Ġdesp ised
Ġrebu ilt
Ġstret ch
Ġpal ace
Ġtransgress ion
Ġmur m
ĠGad Ê¹ites
Ġinner most
Ġform ation
Ġperfor med
Ġfoolish ness
Ġeag er
Ġtrump et
Ġdiscern ment
Ġamount ed
ĠShaÊ¹ phan
Ġcleans ing
Ġbride groom
ĠBo Ê¹az
ĠGer Ê¹shon
Ġupro ot
Sh ould
Ġlau gh
ĠCarÊ¹m el
Ġspl it
ĠPers ia
Ġfurn ace
Ġpresum pt
mal Ê¹ek
Ġtrium ph
ĠJephÊ¹ thah
Ġinteg rity
B y
F rom
T e
g ilÊ¹e
l ow
n iÊ¹jah
r ites
s ites
w ood
Ġw ander
in ation
re r
Ġb and
is m
is sed
at ors
Ġc u
Ġc ister
Ġd ir
Ġd awn
Ê¹ an
ho m
ĠT ruly
am eless
Ġre le
od ay
ac ia
Ġwe ary
ĠG eÊ¹
el and
Ġan n
Ġse vere
Ġson gs
ĠM any
Ġout c
ĠL ib
ĠL amb
ru b
Ġpl an
Ġpl und
Ġch amb
ck now
Ġshe l
oÊ¹ ah
Ġro be
Ġdec ree
ĠEgypt ian
Ġcl ay
ĠEÊ¹ lam
ag ed
ft y
Ġspirit s
Ġstand s
Ġsho ws
ĠAm en
Ġqu e
Ġqu ant
Ġdist rib
Ġcons ci
ĠAr Ê¹a
Ġpossess ions
aÊ¹m ar
Ġpast ure
Ġfruit ful
cc ording
Ġcomple ted
rag ed
Ġbelie vers
ĠJoÊ¹ nah
Ġpurs uing
Ġcompan ions
Ġwest ern
Ġaw are
wor thy
Ġperfor m
Ġmag n
Ġinstruct ions
ĠIm mediately
Ġstore h
Ġdecept ion
Ġrespons ib
ĠPro phe
Ġisl ands
Ġperman ent
yp oc
Ġearn est
Ġharmon y
Ġsuc ceed
ĠEzÊ¹ ra
Ġpromin ent
Te acher
Ġcister n
Ġchamb ers
D id
Y es
j ust
l er
l iness
r arÊ¹i
Ġa cknow
Ġw ond
in c
Ġs its
ou se
re en
Ġb ind
er y
ay s
Ġfor ce
st ri
am ber
ĠS ing
ke ts
Ġsa f
ĠH oÊ¹
ĠH ag
ĠB et
ĠB ring
Ġst eal
Ġare a
Ġcom pens
op le
ĠD id
ĠD uring
ul ts
Ġab ound
Ġv is
Ġv ast
Ġch amber
ig hed
Ġwor se
ph Ê¹e
Ġle aves
Ġac acia
Ġco l
Ġtim bers
Ê¹i ah
Ġown er
rib le
Ġbel ow
oin ting
ĠSh alÊ¹l
Ġsacrif icial
Ġcontin ually
Ġinhabit ant
Ġwit her
Ġlaw ful
aÊ¹n ah
Ġhel per
Ġlord s
Ġcal f
Ġhum bled
Ġtra vel
Ê¹d o
aÊ¹d esh
Ê¹p a
Ġdef raud
Ġgather ing
Ġext end
Ê¹sh ish
ĠY et
Ġminister ing
estiv als
Ġtor ture
Ġwid th
Ġrebu ke
Ġgovern ors
ĠBar Ê¹na
Ġmur de
Ġsuffer ing
Ġbene ath
resp ond
Ġprofan ed
ĠZeÊ¹ rah
ĠPer haps
Ġoccur red
Ġsprou t
Ġcondem n
Ġceleb rate
Ġfing er
Ġartic les
Ġhundred s
Ġjealous y
ĠHuÊ¹ sh
Ġque en
G od
b ish
b aÊ¹al
c aiÊ¹ah
f are
k ins
m iÊ¹ah
re ed
Ġf ault
Ġf estivals
er ing
Ġc irc
en ess
Ê¹ v
Ê¹ la
Ê¹ lon
an wh
Ġl ose
Ġl ots
se t
Ġre nder
Ġnot ice
Ġwith d
ra in
ĠM ac
ĠM aker
Ġde b
Ġdo gs
Ġsp ent
ĠC ush
all ed
ard s
ard on
Ġlo af
Ġor nam
Ġher ds
ĠK eÊ¹
Ġsu per
Ġdis m
sh aped
Ġle ast
Ġr is
ĠR ep
Ê¹i z
ip er
Ġro ll
aught er
Ġarm or
Ġen s
Ġthan k
Ġlook s
Ġper mit
Ġwar ning
Ġfound ations
ĠDo es
Ġact ing
ĠAfter ward
Ġte acher
Ġcapt ure
Ġev ent
Ġsk ill
Ġsk illed
Ġhum ans
Ġdiv or
Ġprost rated
Ġwo ven
Ê¹sh a
Who ever
Ġcor respond
Ġadd ition
Ġtou ching
Ġwid ows
Ġsurround ed
Ġsick ness
Ġkne es
Ġspeech less
Ġprof it
ĠHaÊ¹m ath
Ġstra w
Ġfut ility
Ġclear ly
Ġsand als
Ġred u
Ġtur b
Ġheal ing
Ġanx ious
ĠUzÊ¹ zi
Ġmemb ers
Ġtreacher ous
Ġvolunt ary
Ġprophes ied
Ġdepth s
ĠTar Ê¹shish
Ġaccompan ied
Ġoutc ry
Ġcompens ation
ĠShalÊ¹l um
anwh ile
A men
R eturn
h aÊ¹dad
i us
n an
n oÊ¹ah
p ie
r ach
t ho
w hel
z Ê¹e
Ġa v
Ġs ought
Ġs ize
Ġh ates
on t
or m
or row
Ê¹ h
Ê¹ uch
Ġp ress
Ġhe ir
as er
le cted
ĠT oÊ¹
ir st
ĠS cript
th ites
Ġan ointing
âĢĻ ?+
il ing
ĠM er
ĠW ell
ru Ê¹iah
ĠE u
ĠE sh
ĠHe ar
res ent
Ġab us
Ġover se
Ġover whel
Ġch ains
Ġne cess
ĠK aÊ¹desh
Ġbl ameless
ate ver
Ġr ans
ĠR ephÊ¹a
Ġdes ir
Ġheaven ly
Ġsc ales
Ġsc reen
Ġob st
Ġend ure
Ġsacrif icing
Ġ3 8
Ġgod ly
Ġdiscip le
Ġdev i
Ġpray ed
Ġpers u
Ġlead s
Ġprin ce
Ġrec ord
Ġtra p
Ġappro val
Ġsupp ly
Ġbelie ved
she Ê¹m
ci ally
Ġtong ues
Ġcompan ion
Ġgre ed
ĠBar Ê¹uch
Ġoppress ed
Ġinqu ired
Ġmag ic
Ġshield s
ĠRaÊ¹m oth
Ġmis lead
Ġsepar ated
Ġtramp led
Ġgreet ings
ĠHitÊ¹t ites
ĠHeb rew
Ġsour ce
Ġblaz ed
ĠCaes ar
Ġstation ed
ĠQ ue
Ġexch ange
Ġsafe guard
Ġprover b
Ġexact ly
Ġcoun sel
Ġscript ure
Ġshel ter
Ġconsci ence
Ġevent ually
Ġrans om
C ursed
e x
f fe
g ar
g Ê¹eb
h ud
h ip
p it
s s
s hed
t e
w are
z e
z ites
Ġt ired
Ġw age
Ġw aves
Ġb als
Ġb athe
Ġb lew
Ġto re
at s
on c
en ces
Ê¹ zar
Ġp ost
Ġp oint
Ġin flic
Ġn ail
Ġl ame
se iÊ¹ah
le k
ĠT aÊ¹mar
Ġha m
st ed
Ġwe ighed
el ve
ĠH azÊ¹a
Ġk id
Ġk iss
Ġan oint
ĠM ah
est ines
Ġsh attered
ĠIsrael ite
ct ive
ĠD a
nt s
ĠP ut
Ġint estines
ist ry
Ġpl ains
Ġex iles
ĠK ish
Ġbl ock
Ġsu ffe
sh ulÊ¹lam
Ġany more
Ġco st
ĠR ab
Ġsw ift
ĠZ iÊ¹
oth y
Ġfl ame
Ġapp eal
Ġent ers
Ê¹b e
Ġru ling
Ġ4 6
ĠWh ich
ĠSh am
Ġsacrif iced
Ġwicked ly
Ġblood shed
Ġ3 3
Ġtrib ute
Ġqu ite
Ġact ually
Ġdep ut
ĠAr Ê¹non
Ġtem p
Ġsm o
Ġcho ice
ĠNe gÊ¹eb
Ġcal m
Ġexp lain
ĠMe anwhile
Ġext ra
Ġwa ist
Ġresid ents
Ġimp osed
Ġcourtyard s
Ġminister s
ĠJoÊ¹ tham
Ġwarri or
hiÊ¹ jah
Ġsum mer
Ġdesp ise
Ġrebu ild
Ġaw ake
Ġsleep ing
Ġced ars
Ġbreast s
Ġbreast pie
Ġcorn ers
Ġwound ed
ĠHiÊ¹ v
Ġnob ody
Ġmist reat
Ġsabbath s
Ġstir red
Ġvessel s
Ġschem es
Ġunre ason
Ġcap it
ĠTim othy
Ġrepurch ase
Ġunfaithful ness
riÊ¹ us
Ġwast eland
ĠCy rus
ĠNeÊ¹b at
Ġblasphe m
Ġsprink led
Ġscour ge
Ġentrust ed
Ġutter ly
Ġoblig ation
Ġobsc ene
rub Ê¹ba
Ġwond ers
bish Ê¹ai
Ġdesir able
ĠQue en
Ġbals am
Ġsuffe red
Ġbreastpie ce
5 00
J ust
N ot
S end
a ld
e Ê¹a
i pped
k Ê¹ron
l ace
o ves
s us
t le
w here
he arted
re p
Ġb ase
Ġc ured
Ġd ug
Ê¹ ch
ho Ê¹a
Ġbe nd
ĠA ccording
Ġme ant
ad ed
Ġse aled
ĠM aÊ¹a
ĠE kÊ¹ron
ĠHe zÊ¹
iÊ¹ el
ch arge
Ġlo fty
os ing
ul s
Ġri pe
Ġex amp
ĠK eÊ¹d
Ġdis charge
oÊ¹ mi
Ġho liness
ĠWhen ever
ĠTh an
ĠR esc
Ġ2 9
ĠPh inÊ¹e
are nts
ĠShe m
Ġgl ad
iz ing
Ê¹n an
ĠAÊ¹ m
Ġhow ever
Ġbur st
Ġpo ol
Ġmouth s
Ġposs ible
Ġlaw less
Ġflesh ly
Ġgen eal
Ġhelp less
Ġmar ched
Ġhum ble
Ê¹d od
Ġguard s
Ġmin istry
Ġbreak ing
eÊ¹b a
Ġter rible
Ġtreas uri
ĠAsh Ê¹dod
Ġdream s
Ġproclaim ed
Ġfig s
Ġconce aled
ĠMaÊ¹ ch
ĠPe ople
Ġeag le
Ġstrik es
Ġmaj esty
Ġascend ed
Ġdecept ive
Ġrecogn ize
Ġovert ake
ĠSho w
ĠJaÊ¹b esh
Ġdut ies
Ġiss ued
ĠLaÊ¹ chish
Ġcorre ct
ĠGu ard
Ġdisob edi
Ġsupplic ation
Ġcu ps
sheÊ¹m esh
Ġextra ord
ĠResc ue
Ġgeneal og
Ġtreasuri es
M ake
T ruly
d ing
e ks
f ru
g od
k am
o ol
r ar
s ome
Ġ es
Ġ round
Ġt all
he ther
Ġa ven
Ġh ypoc
Ġb ond
Ġf ame
Ġf att
Ġf rank
Ġf urious
Ġm ain
Ġm ild
it ions
Ġp arents
Ġin for
Ġl ower
Ġwi pe
Ġe as
Ġre ar
ĠS is
ĠS ave
ac ious
ĠG aÊ¹
ess ed
Ġsh ining
ĠD aÊ¹
ch in
ĠP ay
ĠâĢĺ âĢľ
Ġover f
Ġpro ved
Ġex c
Ġbl ack
Ġun p
Ġho ok
Ġco vers
Ġrep resent
Ġspe c
Ġdes ired
Ġset ting
Ġang uish
Ġfirst fru
Ġpre ached
Ġpre vent
Ġyoung est
Ġend ed
Ġsl op
Ġstre et
ĠAÊ¹ d
az Ê¹zar
Ê¹m i
Ġpo le
Ġcons ult
Ġte nder
Ġkind ly
Ġnum bered
Ġbo ld
Ġobs erved
Ġappro ved
Ġdescend ed
Ġcop y
Ġprodu ced
Ġresp ond
pe cially
mor Ê¹rah
Ġsatisf y
Ġviol ent
Ġhu nt
Ġpurs ued
Ġsear ched
Ġgre en
Ġsn ow
Ġclose ly
Ġneighb ors
Ġmur der
Ġreal ized
ĠPer Ê¹iz
Ġeng ra
Ġcleans ed
Ġwail ing
Ġpreach ing
Ġconcub ine
Ġcro oked
ĠTw elve
Ġhang ing
Ġcomfor ted
inc ense
Ġnecess ary
Ġobst inate
ĠMaÊ¹ch ir
Ġes pecially
Ġfrank incense
Ġfirstfru its
H appy
W ill
h ith
in Ê¹n
re z
Ġh ig
Ġf ro
Ġf asting
er t
Ġm us
Ġm edi
at Ê¹t
Ġy ield
Ġc ure
Ê¹ el
Ġl u
ĠJe zÊ¹e
st one
Ġre vel
Ġu nt
ĠG reat
ĠH ad
ĠM en
ĠM oÊ¹
us hing
ĠW as
Ġal oud
Ġal co
ĠO g
Ġj un
ous es
Ġch asing
Ġwhen ever
Ġwor n
Ġle gs
Ġcomm on
.âĢĻ *+
Ġgreat ness
?âĢĿ âĢĻ
Ġfo nd
Ġgra b
Ġ4 00
Ġwar ned
Ġact ivity
Ġstr ay
Ġfall ing
Ġpo ison
Ġnight s
Ġdev oured
Ġ5 00
Ġlaw s
Ġcomp lain
Ġpray ers
Ġcho oses
Ġkind s
Ġrel ief
Ġ6 00
Ġsign al
Ê¹d a
Ġfin al
Ġsupp orted
Ġconf usion
Ġresid ence
Ġstum bled
Ġtest ed
Ġgrow ing
Ġsecret ly
Ġtreas ury
Ġport ions
Ġdeal t
Ġattack ed
Ġthres hold
Ê¹z ah
Ġdish onor
Ġdish onest
Ġacqu ire
Ġsynagog ues
Ġnaked ness
Ġtalk ing
Ġur ge
Ġtrave ling
ys s
Ġvic tory
ĠHitÊ¹t ite
Ġredeem ed
Ġcap able
Ġencamp ed
Ġz eal
Ġbar ren
Ġstrang ers
ĠNaÊ¹b al
Ġarrog ant
Ġconsp ired
Ġdou ble
Ġvill age
Ġhom es
Ġshar p
Ġfaced own
Ġcircumc ision
Ġsurre nder
Ġpomegran ates
ĠBet ter
ĠHezÊ¹ ron
Ġalco ho
Ġjun iper
! *+
S he
c ip
c Ê¹c
f o
g ins
h im
k aÊ¹nah
l ook
o z
o Ê¹a
s lay
y ou
Ġs lee
re ws
Ġh in
Ġh ating
Ġb ot
Ġb ribe
Ġf r
Ġm al
Ġm ad
Ê¹ ite
Ġth ief
an ced
ĠJ ub
Ġbe ll
as hing
Ġg lean
ve h
ve less
ĠT ir
ĠT urn
im ated
st orm
ĠS p
ra iÊ¹ah
ĠG azÊ¹a
ĠG reet
Ġme ek
ĠH ar
ĠB u
Ġst oned
th at
Ġmy r
ro Ê¹
ro ad
Ġse lected
ic t
Ġman slay
Ġsp are
ru e
ĠE x
iÊ¹ lah
Ġso l
Ġso lem
Ġlo vers
Ġcon se
Ġch ase
Ġex ist
Ġdis own
Ġcomm ission
ĠR ight
qu ently
Ġsin ner
ich Ê¹ri
ile e
Ġen roll
Ġcont amin
ĠEÊ¹ n
Ê¹t es
Ġru led
Ġcar c
Ġsho ot
ĠSh out
Ġsl ow
Ġgu est
Ġgu ide
ĠAÊ¹ chish
Ġbelong ings
Ġstrong er
ertain ly
Ġexp el
Ġwind ows
Ġcur ses
phra Ê¹tes
ĠZe b
ĠLike wise
Ġstay ing
Ġprov ided
Ġest imated
Ġmerc iful
Ġgrow s
Ġhid ing
ĠJo el
Ġfoot st
ĠHaÊ¹ ran
Ġvalley s
Ġsn are
Ġocc up
Ġast on
Ġoppress ion
Ġce ase
ĠAd am
Ġche st
Ġseem ed
Ġbetray ed
Ġconfid ent
Ġtramp le
Ġcust ody
Ġrespons ible
Ġpot ter
ĠHeb rews
Ġobser ving
ĠIth Ê¹a
Ġswall owed
Ġpati ence
Ġmerch ants
Ġexh au
ĠShuÊ¹ shan
Ġrele ased
Ġplund ered
ĠProphe ts
Ġornam ents
ĠScript ures
ĠHiÊ¹v ites
Ġexamp le
Ġextraord inary
Ġfatt ened
ĠSis Ê¹e
Ġlu x
Ġslee veless
ĠJub ilee
Ġsolem n
W ith
f er
h onÊ¹a
k ah
l aÊ¹
n ach
n aÊ¹im
r in
r ary
Ġt ail
in ion
Ġb us
Ġf la
Ġm ill
Ġm irac
Ġc it
Ġc ows
Ġd il
Ġd ang
Ġd ying
Ê¹ ra
Ġin ex
Ġn ative
ĠA ch
ĠA zÊ¹
le t
ĠS i
ĠS urely
Ġwe eds
al y
ĠH ash
Ġk issed
Ġst ag
th ink
Ġwh ist
Ġse als
Ġdo ve
ic ation
Ġsp y
ant age
Ġsh rew
Ġoff end
ĠN er
ĠN eth
ĠN aÊ¹d
ep ress
Ġdown fall
Ġv an
Ġar gu
eÊ¹ dom
Ġdis ple
Ġdis resp
Ġun just
Ġun think
Ġle vel
Ġr ow
Ġr amp
ĠR ock
qu ences
Ġearth qu
phe th
ĠIn c
Ġcommand ers
Ġcont rary
Ê¹b er
Ġgra ven
Ġwar n
Ġsec re
Ġ3 5
ĠAÊ¹ mon
ĠWho m
Ġdep os
ai ly
ai red
Ġfear ing
Ġpass ion
Ġpra ising
Ġinhabit ing
Ġsend s
Ġref ined
liÊ¹ ab
Ġpart ial
Ġhold ers
Ġrel ative
Ġmar au
Ġbo il
Ġpleas es
Ġpleas ant
Ġtra ined
Ġhop ing
Ġprov isions
Ġadv ance
Ġadv antage
Ġtrust worthy
Ġhusb ands
Ġass ist
Ġsister s
Ġstat ues
Ġtor rent
Ġaccept able
hiÊ¹ kam
Ġallow ance
Ġprison er
Ġrepro ve
Ġbas is
Ġconst ant
Ġpublic ly
Ġcross ing
Ġreve al
Ġche er
Ġgrou ps
Ê¹ne h
Ġhumili ation
Ġplead ed
Ġmean ing
Ġwin epress
ĠPeÊ¹ rez
Ġemb r
Ġsepar ate
Ġsurv ive
Ġrepent ance
ĠAgain st
ĠNaÊ¹b oth
Ġcrafts men
Ġexting uished
Ġswar ming
Ġobedi ent
Ġsen seless
Ġquant ity
Ġearnest ly
Ġacknow ledge
Ġmurde rer
tho th
Ġkid ney
hith Ê¹o
Ġmanslay er
Ġconse quences
ĠNaÊ¹d ab
Ġdisresp ect
Ġunthink able
O f
R ise
S ay
b les
b ody
d rin
g g
h i
i och
j eÊ¹a
m ah
m eÊ¹
p ter
r own
r ath
s k
t iÊ¹ah
u ously
z Ê¹a
Ġa x
Ġs ighing
Ġb ands
Ġm iss
at ers
it ate
Ġc y
Ġc ou
Ġd aily
Ê¹ he
Ġp h
Ġp op
Ġp ains
Ġth igh
Ġn at
Ġl ust
Ġl az
Ġbe re
Ġbe fall
ĠA th
ĠA nt
ĠT rue
im Ê¹ri
ir ts
Ġnot e
ĠS il
ver ty
ra w
al Ê¹ti
Ġas so
Ġall ot
ĠH ur
ĠH aÊ¹n
ĠB read
il ities
ĠF irst
ĠO ut
ok ing
Ġlo ving
ĠN one
ĠN eÊ¹
ĠN inÊ¹e
Ġint end
os h
ud der
Ġv o
Ġpro ced
ell ed
Ġne eds
Ġdis reg
Ġle nd
Ġr ide
Ġr ises
ĠR a
ol ished
Ġro ots
Ġcommand s
ĠEÊ¹ ph
ĠEÊ¹ den
ĠAs Ê¹a
ĠAs ia
ort un
Ġprophe cy
Ġper ver
Ġad min
Ġ4 7
un ished
Ġblood gu
Ġdisc reet
Ġ3 6
Ġwalk s
ĠAm Ê¹a
ren ce
Ġtell s
Ê¹m an
Ġhar ps
Ġfollow s
Ġpo verty
Ġopen ing
Ġwit hered
Ġnear by
Ġget s
Ġwind s
Ġwind ow
Ġdiv ination
Ġinstru ment
Ġconf ir
Ġconf ess
?âĢĻ âĢĿ
Ġspread ing
Ġaccount ing
Ġtrust ed
oun ced
Ġpit ched
Ġenc ou
ĠHaÊ¹ zor
Ġdisp lay
Ġrebu ked
Ġdoor post
Ġocc as
Ġharm ful
Ġapost le
Ġbapt ism
Ġtrou bled
Ġgain ed
Ġvir gins
Ġacqu ired
Ġrob es
Ġwound s
Ġunfaith fully
Ġur ged
Ġemb ro
Ġupro ar
ĠSho Ê¹b
cher s
ĠTeÊ¹ man
ĠNaÊ¹ hor
Ġexult ation
Ġstrengthen ed
Ġheight s
Ġpronounce ment
Ġdesign ated
ura l
Ġcre ation
ĠUn leavened
Ġfors ake
Ġagree ment
ĠSan Ê¹he
ĠSu cÊ¹c
Ġpresumpt uous
Ġstoreh ouses
ĠHag Ê¹g
Ġunp unished
Ġhook s
ĠRight eous
Ġmirac les
Ġdil ig
Ġshrew d
Ġramp art
Ġkidney s
ĠAnt ioch
Ġasso ci
Ġbloodgu ilt
ĠSucÊ¹c oth
) ,+
4 00
T oday
b eÊ¹
c er
d uÊ¹
e ment
g ur
h imÊ¹e
i ance
k Ê¹k
m Ê¹ri
o ff
r ison
u it
w ed
w ill
z eÊ¹
Ġs ce
Ġs out
re Ê¹a
Ġh ips
Ġb ath
Ġb ald
Ġf ain
on ored
Ġc red
Ġc akes
Ġd am
Ġd ig
Ġth rust
Ġin vest
Ġin fection
ar ation
ho w
Ġl od
Ġl ate
Ġhe alth
ĠJ ok
Ġe art
Ġe un
st rate
ri ve
ke h
el Ê¹e
Ġme mor
ad i
Ġsa il
th ite
ĠM ed
ĠM ar
ĠM as
ĠM ag
Ġde vel
ic est
ĠC ain
ĠHe Ê¹
ĠO mÊ¹ri
Ġlo ss
Ġint ent
Ġpl ent
Ġpl ans
ul ar
ul ted
Ġch ased
Ġmen stru
Ġpro p
ph as
sh azÊ¹zar
Ġun god
Ġpri or
ĠR im
ĠR ise
Ġsee ks
Ġrep e
Ġrep aired
ĠZ eÊ¹b
oth s
Ġres ist
Ġtw ice
Ġset s
ĠShe Ê¹lah
Ġreg ret
Ġru ined
Ġcar ri
ĠBe yond
un ning
less ed
Ġnor ther
Ġcontin ues
Ġ3 1
Ġ3 9
Ġsil ence
Ġact ion
ren eÊ¹
Ê¹m e
Ê¹m ai
Ġpass es
Ġdead ly
Ġinst all
Ġcomp are
Ġcho icest
ĠU p
Ġ12 0
Ġstri ct
Ġprom ises
Ġcal ves
Ġhelp ed
Ġreb el
Ġinstru ction
li ves
Ê¹p her
Ġdef ense
Ġmaster s
Ġext ent
Ġkill ing
Ġtor ment
Ġ13 0
Ġdeser ving
Ġbes ie
air s
Ġprison ers
Ġrepro of
Ġrock s
Ġhur ry
Ġbas in
Ġproclaim ing
Ġ8 0
Ġhappen ing
Ġpan ic
Ġsuffer ings
Ġweak ness
ere rs
Ġoppos ition
Ġsqu ares
Ġsubject ion
Ġforgiven ess
Ġfre ed
Ġamaz ement
Ġbeat en
ilÊ¹ la
Ġdeceit ful
Ġconcub ines
Ġinsp ired
Ġadvis ers
Ġridic ule
ĠMiÊ¹ch al
Ġpurch ased
Ġcru el
Ġthorough ly
ĠKe iÊ¹lah
ĠLib Ê¹nah
Ġturb an
Ê¹h ur
Ġdeput y
Ġsmo oth
Ġbond s
Ġspec ial
ĠTir Ê¹zah
Ġproced ure
Ġinvest ig
Ġeart hen
Ġeun uch
6 00
A b
P ut
P raise
a ph
b in
c a
c ents
d aiÊ¹ah
g ail
i ph
k n
m e
n ite
p ing
r ations
t al
u ng
w hen
w ake
Ġ ver
Ġt resp
is hes
it ical
Ġc ow
Ġc atch
Ê¹ ke
Ġp ardon
Ġth reat
Ġn est
Ġn ose
an se
Ġl isted
Ġhe aps
st ret
ri c
ra b
ra ined
ĠG eÊ¹ba
ĠB oth
Ġst ead
th on
th un
th aÊ¹im
ro Ê¹er
ain ed
Ġout come
Ġout stret
ĠW hether
Ġsp atter
ĠF ore
ĠE phÊ¹e
ĠHe Ê¹man
Ġsh udder
ard ed
Ġag reed
Ġj aw
Ġint ense
Ġab s
Ġab st
ck s
Ġshe ikh
Ġex perienced
Ġar ran
ph a
ĠK en
sh ib
Ġun int
ound ed
Ġcomm its
Ġr ising
Ġco ld
Ġco als
ĠR aÊ¹
Ġpriest hood
Ġsin ning
ip Ê¹p
ĠZ al
Ġro ar
phe Ê¹lah
Ġres erved
Ġother wise
Ġcont ent
Ġcont rol
Ġcl ing
Ġcl osed
Ġgra ves
Ġwar s
Ġask s
Ġjudg ing
act ion
act icing
Ġcons ent
Ġbow s
Ġbow ing
Ġopen ly
Ġinc ur
Ġground s
Ġtem pt
Ġfind ing
Ġsanct ifying
Ġexp anse
Ġ6 2
Ġbo asting
ons ider
Ġrec overed
Ġfin ally
amb our
Ġwo e
Ġpay ing
esh Ê¹
Ġadv anced
Ġwatch man
Ġpract icing
Ġdel ic
Ġdel iver
Ġfort ress
Ġappear s
ĠJoÊ¹ ash
Ġenc ourage
Ġcoll ap
Ġdisp ute
Ġdesp ite
Ġhur t
Ġmel t
Ġrid ing
Ġcollect ed
Ġthink ing
Ġconce al
Ġgrie ved
lish Ê¹a
Ġreal ize
Ġexam ined
ĠReÊ¹ ch
Ġincl ined
Ġadvers ary
ĠSar Ê¹ai
Ġmist ake
Ġregular ly
Ġwin ter
ĠHor Ê¹eb
Ġplag ues
Ġswe pt
Ġden y
onse quently
Ġcountry side
Ġequ al
Ġz ealous
Ġstrang er
Ġextermin ate
Ġprevail ed
ĠGree k
ĠGree ks
Ġblossom s
Al as
Ġnur se
ura ble
Ġcre ep
irac y
Ġworshi pped
Ġcord s
Ġetern al
Ġetern ity
Ġdistur bed
Ġign or
Ġwrongdo ers
Ġeager ly
Ġcarc asses
Ġexhau sted
Ġearthqu ake
Ġmarau der
Ġcheer ful
Ġcy mb
Ġph ys
Ġlaz y
Ġvo ices
duÊ¹ thun
Ġsce pter
Ġmemor ial
ĠRim Ê¹mon
Ġnorther n
Ġoutstret ched
Ġarran ge
C all
E ven
N e
O ur
R em
b i
b read
d an
f fect
h iÊ¹ah
h ron
i ent
l o
l and
m iÊ¹
m oil
n o
n arÊ¹i
r h
s hen
t i
t ub
t led
z en
Ġt ie
Ġt ambour
Ġw re
Ġs ust
Ġh ind
Ġb one
Ġf le
Ġf et
Ġto il
Ġto ler
at or
at ched
Ġc at
Ġc la
Ġc ries
Ġc unning
Ġd ressed
Ġp in
Ġp ow
Ġin au
ar row
ar ious
ho zÊ¹a
Ġhe ap
om m
om ach
ĠI d
ĠI zÊ¹
Ġwi ped
as hes
ut ions
id ence
Ġis ol
Ġe ff
Ġu seless
ad Ê¹an
Ġsa vi
ĠH eth
ĠB apt
Ġst omach
âĢĻ ?
Ġtheir s
Ġde af
ĠW ail
Ġman na
Ġday light
ĠD oÊ¹
nt o
Ġoff ice
ch iÊ¹jah
if f
if ies
Ġlo ath
Ġint ended
Ġpl ants
ul ate
Ġus ing
Ġover p
Ġover lay
Ġv arious
Ġkn ob
Ġkn ock
Ġshould ers
ph un
Ġne g
ĠK ir
Ġbl ot
Ġdis per
Ġun bel
Ġr im
Ġr ows
ĠR ather
ĠR abÊ¹b
ĠR eturn
ĠJud ge
Ġro aring
oth ing
Ġdec re
Ġcl im
Ġent hron
ĠEÊ¹ ber
ĠEÊ¹ lah
ĠShe b
Ġwhom ever
Ġwhere as
Ġad j
ĠWh atever
per Ê¹na
Ġreturn ing
isten ce
Ġrest ed
Ġsl and
Ġ3 4
Ġdrink s
Ġlisten s
Ġdist ing
Ġaf f
Ê¹m er
Ġhigh way
Ġfear ful
!âĢĿ *
Ġcamp s
ĠAr Ê¹i
aÊ¹n i
ĠWith in
Ġbad ness
Ġconc l
Ġpresent ing
Ġgr ind
uÊ¹ zar
Ġbuild ers
ĠAmÊ¹ ram
Ġhapp ens
Ġrec over
Ġrec onc
Ġdiv ide
Ġopp ortun
Ġsupp orts
Ġbro ad
aÊ¹d rach
Ġborn e
Ġdri ving
Ġcor p
Ġprostit utes
Ġtab les
Ġtest imony
Ġrequ ire
Ġhard ship
Ġmo ving
Ġcond ition
min Ê¹a
Ġshout ed
ĠAsh Ê¹ke
Ġmind s
Ġflee ing
Ġdevot e
Ġinv ol
vi ved
Ġast ounded
Ġbran ch
Ġupright ness
Ġhung er
Ê¹z e
Ġgrand son
ere r
Ġexam ines
Ġrespect ing
Ġremind er
Ġtur moil
ĠâĢĶ âĢĶ
Ġpersec uting
Ġimmor al
Ġillust rations
Ġcurtain s
Ġaccus ation
Ġpurif y
Ġconv ention
Ġwag on
Ġconqu ered
Ġlim it
Ġarrog antly
pr acticing
Ġsubd ued
maÊ¹ sa
Ġpar ched
Ġpar aly
ĠSal t
Ġrevol ts
Ġste ward
Ġinterest s
Ġgaz ell
Ġstate ment
Ġcrafts man
hand ed
Ġfright ened
Ġsurviv or
Ġsurviv ors
Ġoverth row
Ġdir ge
Ġvis ible
Ġrecord ed
ĠRab Ê¹sha
ĠZiÊ¹ ba
Ġmedi um
Ġrevel ation
fo ot
Ġfr ame
Ġaston ished
Ġbus iness
Ġinex perienced
Ġwhist le
Ġembro ide
Ġcarri ages
Ġearthen ware
Ġsheikh s
Ġcymb als
Ġfet ters
Ġinau gur
phun Ê¹neh
Ġdisper se
Ġunbel ie
Ġopportun ity
A m
S urely
b ad
c om
d ah
e is
h ah
j oice
l ood
m as
m ith
n az
o ard
t ell
u ce
u ck
u Ê¹a
u ne
x er
x Ê¹
y ed
Ġ rou
Ġt ied
Ġw oke
Ġo ught
Ġb ent
Ġto tal
Ġm ed
ing ly
on ing
Ġc laim
Ġp ound
Ġp ile
Ġp atter
Ġp iles
an ed
om orrow
as k
Ġg n
ot ion
ow ered
Ġe le
Ġe mer
Ġe ffect
am s
Ġre semb
Ġre sol
ĠS ong
her n
ra k
ĠG itÊ¹t
ĠG eÊ¹zer
ĠG eshÊ¹
ad d
ad ing
ad el
ĠH el
ĠH aÊ¹dad
ĠB ilÊ¹
Ġst o
Ġst are
il ight
ĠM il
ĠM irÊ¹i
Ġup ward
ĠW adi
hen s
Ġsp ot
ĠC our
ĠC ertainly
ĠE ast
Ġsh aved
aÊ¹ i
pt ly
ĠD ay
Ġag it
ear ing
Ġoff ended
ch iÊ¹ah
Ġj ack
ĠP r
Ġab sol
Ġab road
Ġno stri
Ġv om
Ġch ang
Ġex iled
um in
ph ib
ĠK a
Ġbl own
Ġbl ows
ate red
sh ach
oÊ¹ mer
Ġle avened
Ġho st
Ġcomm itting
ĠTh ree
ĠR uth
Ġsin ful
ĠZ ik
Ġdes erve
Ġacc ord
Ġacc use
Ġfl atter
Ġtw ilight
Ġent reat
ĠEÊ¹ l
ĠAs cents
Ġfa ir
Ġfa iled
Ê¹t e
Ê¹t ai
Ġob eis
Ġra id
Ġlong ing
Ġad ult
Ġmount ed
ĠAb el
Ġsho ots
Ġend uring
iz es
Ġ3 7
ron es
ĠBaÊ¹ ni
Ġpo ll
Ġpower less
Ġ5 2
Ġ5 8
Ġbless ings
Ġsm ash
Ġstri pped
Ġprin cip
Ġev ident
Ġcut ting
Ġwind storm
Ġdet ail
Ġbound aries
Ġfin est
Ġguard ing
Ġconf ron
aÊ¹b or
Ġshame ful
Ġdistress ed
Ġdefe ct
Ġtest ify
Ġdeep ly
Ġbreak s
Ġviol ently
Ġregard s
Ġregard ed
Ġdeser ted
Ġarri ve
Ġconsum ing
Ġenc irc
hiÊ¹ tub
Ġsn ake
Ġdesp air
ĠBeÊ¹ la
ĠSt op
ulf ur
Ġpal ms
bed Ê¹ne
Ġrequest ed
Ġdeal ings
Ġflour ish
Ġcollect ors
Ġfut ile
Ġbitter ly
Ġlep er
Ġcompassion ate
Ġtur tled
Ġstub ble
Ġmultip lied
.) +
St op
eÊ¹d an
Ġhaught iness
Ġden ied
ĠOther s
Ġrecogn ized
Ġvic t
Ġcorrupt ion
Ġpurif ication
Ġconv in
Ġcondem ned
ĠTe ach
Ġanx iet
Ġharsh ly
Ġinj ury
Ġexpect ation
ĠMeÊ¹ shach
Ġvill ages
Ġnur sing
Ġcultiv ators
Ġenv y
Ġfright en
Ġridic ul
ĠMiÊ¹ch a
Ġdistur b
ĠGoÊ¹ shen
haÊ¹ zi
Ġpier ced
Ġpriv ately
Ġmurm ur
Ġresponsib ilities
Ê¹la g
Ġdeb t
Ġroll ed
Ġredu ced
Ġav o
ĠMer Ê¹i
Ġabus ively
Ġdevi ate
Ġinflic ted
rep are
Ġoverf low
Ġhig her
Ġgrab bed
him Ê¹a
Ġmyr rh
Ġpartial ity
Ġsout hern
Ġungod ly
Ġunint ention
Ġcreep ing
ĠRabÊ¹b ah
Ġenthron ed
xer xÊ¹
ĠGeshÊ¹ ur
ĠCour t
Ġjack als
Ġnostri ls
phib Ê¹o
ĠZik Ê¹lag
Ġobeis ance
Ġprincip al
xerxÊ¹ es
A ny
C an
F ather
S aul
a uthor
c u
g on
g id
h ash
i ant
l ers
o ld
p ass
p oint
s ah
t an
u z
y es
z ed
Ġa ro
Ġo per
Ġs ed
Ġs ulfur
re ak
re Ê¹ah
re rs
Ġh at
Ġh ord
Ġf it
Ġf resh
Ġm iÊ¹
Ê¹ rim
Ġp et
Ġth und
Ġth rones
ho re
Ġhe wn
ĠJ op
Ġbe ard
Ġbe ating
ĠA Ê¹n
ĠA wake
ut ely
ĠT it
Ġfor b
st ood
st ones
Ġre venge
Ġwith hold
ĠS add
ri p
ra ps
et y
et ime
ĠG a
ĠG iÊ¹
Ġsa kes
ĠB er
ĠB ath
Ġst ar
Ġst em
âĢĻ âĢĿ
Ġli ver
ĠM an
ĠM ish
Ġup set
est us
ic ated
Ġsp ace
Ġsp ared
ĠF estus
ĠC onsequently
ĠL azÊ¹a
Ġsh ave
ĠO lives
ĠD eÊ¹b
Ġlo ses
ĠN ah
ĠP ash
rou d
av al
ie ve
Ġab oard
Ġover joy
Ġover night
ig or
fe cted
Ġex cl
Ġex peri
Ġlike wise
Ġbefore hand
Ġar re
Ġwor m
ph az
eÊ¹ us
ĠK ings
Ġour s
sh on
Ġun author
Ġle aven
Ġr ot
Ġr otten
Ġco ast
Ġbu ck
ĠZ imÊ¹ri
Ġdes cent
Ġapp ortion
Ġwork ed
ne ath
Ġreg ions
Ġru b
Ġgra pe
Ġcar ries
iv id
Ġ4 8
mb ling
Ġsho ok
less ly
ĠSh aÊ¹drach
Ġpres iding
Ġatt ached
Ġsil enced
ĠAm ong
Ġqu it
ock s
ĠBaÊ¹ als
ĠBaÊ¹ rak
Ġunc le
Ġhar b
Ġpo nder
Ġopen s
Ġref rain
Ġinc or
Ġinc line
ĠAl ong
Ġmid day
Ê¹l oth
ĠNe ither
Ġbuild s
Ġrel ate
Ġmar ket
Ġhum ility
Ġdiv ine
Ġsupp lied
than Ê¹el
Ê¹p e
Ġsun r
Ġgather s
Ġsing ing
Ġdisg u
!âĢĻ âĢĿ+
Ġkill s
Ġwatch men
Ġtrust ing
Ġpract iced
Ġdefe at
Ġrejo ices
Ġins ults
hoÊ¹ ron
ĠJo iÊ¹a
Ġneed ed
Ġind ivid
hiÊ¹ el
ĠJaÊ¹ zer
ĠSt ill
Ġhur ried
ĠHaÊ¹m or
Ġthrow ing
Ġrefus ing
Ġaw a
Ġbas kets
Ġpun ished
Ġgir ls
ĠGra nd
Ġdece ive
Ġperfor ming
Ġfoolish ly
Ġsor ry
ĠRem ove
Ġban k
Ġreal m
ĠReÊ¹ z
Ġve il
Ġrob ber
Ġrob bers
Ġdraw ing
Ġsplend id
Ġeng age
Ġascend ing
Ġpersec uted
Ê¹s hom
ĠGer Ê¹shom
ĠHan Ê¹nah
Ġdecl aration
Ġequ ip
ĠJew ish
Ġprosper ity
riÊ¹ jah
Ġfing ers
Ġartic le
Ġsubd ue
ĠNeÊ¹b o
Ġfrag rance
Ġinsp ect
Ġscor ched
Ġscor ching
Ġgaz e
Ġexpress ions
Ġobedi ence
Ġextrem ity
Ġextrem ely
Ġwel fare
Ġgroan ing
Ġresponsib ility
Ġsaf ely
Ġsaf ety
Ġcol t
ĠHuÊ¹sh ai
ĠRep urch
Ġens n
Ġteacher s
Ġham m
Ġgenealog ical
Ġaven ger
Ġfro gs
Ġalcoho lic
Ġsecre ts
Ġmiss ing
ĠRa ise
ĠUp on
kn own
ĠId Ê¹do
ĠIzÊ¹ har
Ġsavi or
Ġloath some
uce es
Ġpatter n
ĠMil Ê¹c
Ġvom it
Ġconfron ted
Ġaro se
Ġhord es
ĠJop Ê¹pa
ĠSadd ucees
ĠDeÊ¹b ir
ĠPash Ê¹hur
Ġoverjoy ed
Ġunauthor ized
* âĢĶ
D avid
K eep
M ost
P aul
R ab
b ushes
c he
c our
c laim
d aÊ¹
d ak
d aÊ¹iah
f ast
h al
h aÊ¹m
i ge
i age
l ated
m ory
n aÊ¹
n aÊ¹ni
p our
r anged
t ime
t ribe
z ah
z ilÊ¹la
Ġ iv
Ġt ens
he ld
Ġw ing
Ġw ol
Ġw ines
Ġo w
nd ered
Ġs im
Ġh anged
Ġb ased
is her
Ġf il
Ġf ever
Ġf ol
Ġto oth
Ġm ud
es p
Ġd ip
Ġd are
Ê¹ ro
ĠI nto
ĠS en
ra i
ĠAnd rew
Ġall iance
ĠH ouse
ĠH inÊ¹n
ce ll
Ġli ar
Ġli ken
ĠM el
ĠM ich
ĠM aking
Ġdo g
ic ious
Ġal ike
ĠO Ê¹ph
ard ing
ak s
ak Ê¹k
Ġoff ers
Ġj ars
Ġlo om
Ġpl ow
Ġser ious
Ġex ceed
Ġex istence
um b
Ġar ise
eÊ¹ nai
Ġbl ast
ign ific
our ces
Ġun ited
Ġr ushed
Ġco oking
ĠR am
ol en
Ġsw ine
ĠZ ac
ĠZ iph
Ġro ast
Ġlet ting
Ġres ources
Ġen raged
Ġfl ute
ĠEg Ê¹lon
Ġtw ig
Ġbeg ged
Ġfo ll
Ê¹t an
Ê¹t us
Ġsc off
Ġunder t
Ġunder stood
Ġunder neath
ĠShe ph
Ġper m
ĠAb out
Ġwar m
Ġwar fare
ĠSh im
Ġpres erved
ĠAÊ¹ ch
oss ible
oss essed
Ġunc overed
Ġhigh ly
Ġfear s
Ġsur pr
Ġsur vived
ĠOn ce
Ġgrain s
Ġsm ashed
Ġstru gg
ĠU nder
Ġhel m
Ġstri p
Ġperson al
Ġgr as
Ġgr ay
Ġdestroy er
Ġsk ies
Ġsat raps
Ġrec omm
Ġresc ues
Ġcur sing
Ġhop ed
Ġconf ined
boÊ¹ sheth
ĠAn other
Ġenter ing
Ġrecei ving
Ġdire cted
she Ê¹a
Ġresid es
Ġimp art
Ġimp ossible
Ġtrans lated
ci a
Ġfort une
Ġins ist
Ġins ignific
Ġdeep er
Ġter aph
Ġlay ing
Ġroad s
Ġsatisf action
ĠHer Ê¹mon
Ġdesol ation
Ġsear ching
ĠHaÊ¹ gar
Ġcompan ies
ĠPharise e
Ġfig ures
Ġfill s
Ġlif etime
uri ant
itÊ¹t im
Ġformer ly
Ġconce ived
Ġconsider able
Ê¹k il
Ġapproach ing
Ġsell ing
Ġrulers hip
Ġaccomp lished
Ġquar ant
Ġtal ent
Ġdom inion
Ġeng aged
Ġsubject ed
room s
Ê¹s ah
Ġnet work
Ġfre ely
Ġfre eness
Ġlampstand s
Ġpos itions
Ġschem e
Ġquestion ed
ĠTeÊ¹ rah
Ġstubborn ly
Ġtaunt ed
Ġextermin ation
Ġdrag on
Ġisl and
Ġconsp iracy
Ġdou b
Ġmemb er
Ġrevol t
Ġfrag ments
Ġpick ed
Ġseas ons
Ġplay ing
Ġtast e
Ġadvis er
Ġadorn ed
Ġbra zen
Ġuproot ed
Ġwithd rew
Ġris en
Ġpermit ted
Ġnail ed
Ġcapit al
ĠAÊ¹m oz
Ġlawless ness
Ġdisobedi ent
Ġhypoc rites
Ġslop es
Ġcopy ist
Ġrespond ed
Ġbell y
Ġsol id
Ġenroll ment
ĠEÊ¹n och
Ġlux uriant
nach Ê¹er
Ġcit adel
Ġstag ger
ĠInc line
Ġpop ul
ĠSil as
Ġallot ted
ĠEÊ¹ph ron
ĠRighteous ness
Ġcred it
bin Ê¹a
Ġabs ent
ĠReÊ¹ch ab
Ġconvin ced
Ġunintention ally
Ġhat red
ĠTit us
ĠNah Ê¹shon
Ġincor rupt
ĠRepurch aser
zilÊ¹la i
Ġiv ory
Ġwines kins
Ġfol iage
ĠHinÊ¹n om
ĠOÊ¹ph ir
Ġinsignific ant
Ġteraph im
5 0
: *+
A gain
E ach
R e
S it
S ir
b on
b ar
b reak
c ar
c rib
d ad
d own
d led
e w
e em
g age
h ad
h ite
k oÊ¹
l ined
m un
n es
p eÊ¹
p ect
y r
y x
z ur
z el
z aÊ¹
Ġt it
Ġa ir
Ġs owing
Ġh os
Ġh ire
Ġh yss
Ġh onored
er Ê¹
Ġto ol
Ġm ail
it i
or ters
Ġc ens
Ġc aval
Ġd im
en ch
Ê¹ ran
Ġp ins
Ġp roud
Ġp ige
Ġth in
Ġin sol
Ġin iti
ar Ê¹
ho b
Ġn arrow
ĠA iÊ¹
ĠA Ê¹nah
ot est
ut ters
le l
id Ê¹ron
ĠT ah
am ing
Ġre ck
Ġre ne
Ġre aches
ĠS ear
ent er
Ġwe ek
Ġme mory
Ġas cent
Ġsa pp
ĠH aÊ¹nan
Ġst ro
Ġst ab
Ġst olen
âĢĻ +
Ġse ct
Ġse ction
ĠM ust
ĠM ak
Ġde ject
op ed
Ġdo ves
us ive
ĠW ould
hen Ê¹na
Ġsp an
Ġsp ies
Ġsp illed
ru ct
ĠE phÊ¹
ĠHe aven
ĠHe Ê¹ber
ĠO pen
ĠD eÊ¹dan
ak ers
Ġoff ending
Ġj ail
Ġlo ops
ĠN im
ĠN ob
ĠN azÊ¹a
pp ers
Ġri p
ell ing
um ber
Ġar ranged
ĠK idÊ¹ron
Ġle ap
Ġho of
.âĢĻ *
Ġr uth
Ġr ushing
Ġevery where
Ġrep aid
ĠZ ichÊ¹ri
Ġro ost
ish ing
Ġdec ide
Ġfl ash
ĠEÊ¹ bed
ĠAs k
Ġfo es
Ġfo ld
ag ing
Ê¹t o
Ġback s
Ġra ven
Ġra fter
Ġra ises
Ġra ising
Ġru les
Ġwar p
Ġwater less
Ê¹n am
Ġatt ain
Ġatt itude
ĠTo gether
Ġact ions
de e
de k
ib Ê¹lah
Ġdwell s
Ġdist in
Ê¹m im
Ġcons ulted
!âĢĿ *+
Ġref res
Ġsur pass
Ġinc ited
ĠLev itical
Ġsm ell
Ġburn s
ĠBeth Ê¹a
Ġpresent s
ĠRe joice
Ġprom ptly
ret ch
Ġsk ins
Ġfavor ably
Ġwhe el
den ed
Ġsupp lies
Ġsupp orters
Ġprodu ct
ĠDan Ê¹ites
Ê¹sh an
Ġwa ited
Ġregul ation
Ġimp urity
Ġimp rison
the y
Ġrequ ired
Ġperish ing
Ġsy mp
Ġmo ons
Ġlay er
Ġviol ate
Ġviol ated
ĠJoÊ¹ za
Ê¹g ah
Ġsick le
ĠEvery thing
Ġrun s
Ġreason ing
ĠHaÊ¹ zar
ĠSt ay
ĠDe c
Ġdemon strate
Ġrefus es
Ġvision ary
Ġpour ing
Ġrod s
Ġcollect ing
Ġdece ived
Ġwealth y
Ġterrif y
Ġterrif ying
Ġval u
Ġconce ive
Ġ25 0
Ġswear s
Ġthorn bushes
Ġincre ased
Ġincre asing
Ġpersec ute
Ġstir s
Ġsecure ly
Ġstart ing
Ġdise ases
Ġshed ding
ĠTim Ê¹nah
Ġdisgrace ful
Ġbag s
Ġaccus ed
biÊ¹ hu
Ġtaunt s
Ġblaz e
Ġextermin ated
ĠNaz Ê¹i
Ġobser ves
ĠZoÊ¹ bah
Ġtreacher ously
adÊ¹d an
adÊ¹d ai
Ġquarre l
Ġquarre ling
Ġorigin ate
Ġexerc ise
Ġcontain ers
Ġdut y
Ġswall ow
Ġdisapp ear
Ġsen ses
ident ally
Ġobtain ed
Ġsuper v
Ġsuper ior
Ġskill ful
Ġcorrespond ing
Ġoverwhel med
Ġgreed y
ĠMah Ê¹li
Ġunreason able
Ġcapit als
ĠKeÊ¹d ar
ĠKeÊ¹d esh
rar Ê¹ites
Ġinfor m
ĠDaÊ¹ gon
Ġmus ic
Ġbot tle
ĠZeb Ê¹e
Ġfootst ep
Ġargu ments
Ġembr aced
Ġencou raged
Ġoccas ion
Ġlod ging
ĠMar tha
ĠZeÊ¹b ah
Ġbesie ged
Ġfreed om
Ġjaw s
ĠRaÊ¹ hab
Ne ither
Ġisol ated
ĠBapt ist
Ġdecre es
Ġgazell e
Ġembroide red
Ġinaugur ation
Ġabsol utely
Ġavo id
ĠCourt yard
gid Ê¹do
Ġpet ition
Ġthund ers
Ġsunr ise
Ġhamm ered
crib ed
mun Ê¹na
Ġhos pit
Ġhyss op
Ġcaval ry
Ġsapp h
Ġsymp ath
7 00
B lessed
G ather
J es
J ohn
O ne
S am
b ab
b alÊ¹l
c on
c est
c arÊ¹i
d ulÊ¹lam
e f
f our
g Ê¹a
g rip
h um
l u
l ene
m ers
m ond
p ol
r at
r as
r other
r ating
s ite
s ons
t ree
t oph
w o
w ho
Ġw ake
Ġo ven
in ence
Ġb eds
Ġb orrow
Ġf ab
Ġto ps
Ġto ken
Ġto night
Ġm oth
it able
or ies
Ġc ud
Ġd ign
Ġd ough
Ê¹ le
Ġp en
Ġp olished
Ġth us
ho Ê¹li
Ġn ets
Ġl it
Ġl am
Ġl aughter
om an
ĠI Ê¹
ĠI bÊ¹
ve th
ve ls
ĠT al
ĠT aÊ¹
ĠT hom
ĠT oday
Ġon yx
Ġfor ces
ir ites
Ġwith held
ĠS aÊ¹
ĠS udden
ac ies
ent al
âĢĿ ?+
Ġwe eks
ĠG og
ad s
ĠH av
Ġst ored
th ai
th uÊ¹el
Ġan cest
and ise
âĢĻ ?âĢĿ
âĢĻ ?âĢĿ+
Ġwh is
Ġse er
Ġse lect
ĠM o
ĠM es
ĠM ik
ĠM eÊ¹d
Ġde m
Ġde er
Ġout sk
Ġpe ar
ĠC l
ĠC or
ĠC all
ĠC orn
ĠL eÊ¹b
Ġbr im
ĠE r
Ġal ar
Ġal mond
Ġsh ade
Ġsh ines
Ġsh atter
Ġday break
if e
Ġlo g
ĠP el
ĠP uÊ¹
ĠP adÊ¹dan
ist r
os ity
Ġor ch
pp ose
Ġab hor
Ġdown pour
Ġover come
Ġno ble
Ġv igor
Ġch ast
Ġch aff
ck led
Ġpro gress
Ġar chers
Ġun se
ave ment
Ġr ash
ĠR ibÊ¹lah
Ġsin k
?âĢĿ *
Ġwat ched
Ġrem otest
Ġspe ckled
ild ren
Ġres ults
Ġacc um
Ġfl ames
Ġapp et
Ġapp ly
Ġapp end
Ġcont end
are rs
Ġcl o
Ġent ry
ĠEÊ¹ hud
ĠShe l
Ġra v
Ġra is
Ġfaith fully
ĠBe come
Ġstand point
Ġ4 9
mb ol
Ġsho t
Ġsho re
ap Ê¹p
Ġchild less
Ġrest rain
Ġim ag
Ġatt ire
sw er
Ġqu al
ĠAÊ¹ ram
oy ed
oy al
ib ly
Ġdwell ed
Ġdep ri
Ġhar ass
Ġsur ging
Ġcomp re
Ġcomp uls
Ġchar ges
liÊ¹ hu
Ġbeh ave
Ġmar ching
Ġcongreg ated
ĠOr Ê¹nan
Ġtra de
Ê¹d on
Ê¹d ah
Ġopp on
Ġdescend ing
Ġdescend ant
Ġsupp ose
Ġread ing
Ġforg ot
Ġprodu ctive
Ġbelie ving
!âĢĻ )
Ġpract ical
Ġterr ors
laim ed
Ġobey ing
Ġstat ue
Ġbreak down
Ġsy mbol
Ġmo ves
Ġdesol ated
ĠJoÊ¹ ah
Ġterrit ories
Ġpit ch
Ġconsum es
Ġpurs u
Ġclot hes
uÊ¹b al
ĠHaÊ¹ rim
Ġhair s
Ġdoor keepers
deÊ¹ an
ĠBeÊ¹ or
Ġinv ade
Ġinter ior
Ġaw aken
Ġcup bearer
Ġcontrib utions
Ġboy s
Ġthink s
Ġgard ens
Ġthorn bush
Ġaccomp any
Ġplead ing
Ġdom inate
Ġcam el
Ġdiscern ing
Ġtomb s
ĠPeÊ¹ or
ĠPeÊ¹ kah
Ġstir ring
Ġmetal work
Ġsad dled
Ġsad dened
Ġpurif ied
Ġfier ce
abÊ¹b as
Ġwag ed
Ġbright ness
Ġplain ly
biÊ¹ ram
Ġflow ers
Ġwast e
Ġload s
ĠNaz irites
Ġserp ents
Ġcorner stone
Al so
Ġmention ed
Ġsprink le
Ġquarre ls
Ġfors aken
Ġmerch andise
loÊ¹ phe
ĠDiÊ¹ bon
ĠPaÊ¹ ran
Ġexh ort
Ġdisapp ointed
niÊ¹ as
Every one
ĠBel oved
Ġbra nd
Ġmurm uring
Ġpresumpt uously
Ġdistrib uted
Ġmagn ific
Ġvis it
Ġcol or
ĠCush Ê¹ite
ĠKeÊ¹ naz
Ġskill fully
Ġdivor ce
Ġav ail
Ġheir s
Ġoverse er
Ġpost s
Ġtemp les
Ê¹ch i
Ġmain tain
Ġmild ness
Ġcontamin ation
Ġdang er
Ġpassion ate
Ġnat ural
Ġbere aved
ĠHaÊ¹n un
Ġadmin ister
Ġdoorpost s
ĠHagÊ¹g ai
Ġdilig ent
elÊ¹e ch
ĠMed es
ĠMag Ê¹da
Ġrepe ated
Ġinstall ation
Ġtresp asses
Ġstead fast
Ġabst inence
Ġdelic acies
Rem ember
Ġtoler ate
ĠBilÊ¹ hah
Ġpoll uted
Ġforb id
Ġexcl usive
Ġexperi ence
ĠReÊ¹z in
Ġequip ment
ĠMilÊ¹c ah
Rab bi
haÊ¹m ath
ĠMich Ê¹m
ĠZac Ê¹c
erÊ¹ oth
ĠAiÊ¹ ja
Ġroost er
Ġfootstep s
Jes us
balÊ¹l at
grip Ê¹pa
toph Ê¹a
Ġlam ent
ĠThom as
Ġoutsk irts
ĠLeÊ¹b o
Ġappend age
ĠNazirites hip
3 0
B u
E Ê¹
J ob
K ing
M an
T urn
T hose
U n
a ign
b ing
b Ê¹o
d i
e ld
g an
g ad
g ment
i od
l ong
l owing
l aÊ¹iah
m us
m oÊ¹
m ite
n eÊ¹
p ho
p ach
p ossessed
s al
v an
y l
Ġo stri
in ers
in Ê¹ne
Ġs us
Ġs ower
Ġh oÊ¹mer
Ġb aked
Ġf ring
Ġf itting
Ġf ixed
Ġto s
Ġto iled
Ġm ut
Ġm ul
Ġc ri
Ġc asting
Ġc ases
Ġd i
Ġd ed
Ġd ense
Ġd ict
Ġd ung
Ġd yed
Ê¹ vah
Ġth ic
ho l
Ġl ake
Ġl air
om mand
Ġwi eld
Ġbe f
as ps
ĠA le
ĠA rab
ĠT aÊ¹bor
ĠT uÊ¹bal
ĠJe th
Ġe g
Ġe re
am Ê¹re
Ġre ver
od e
ir Ê¹a
Ġnot iced
ĠS ib
her Ê¹e
ra Ê¹
Ġwe igh
ĠG ather
ĠG aÊ¹al
ĠB ig
ĠB ook
Ġst all
Ġst ern
Ġst akes
Ġst ench
th iÊ¹ah
ro phe
Ġse ver
